{"version":"1.0","truncation":null,"padding":null,"added_tokens":[{"id":0,"special":true,"content":"[PAD]","single_word":false,"lstrip":false,"rstrip":false,"normalized":false},{"id":101,"special":true,"content":"[UNK]","single_word":false,"lstrip":false,"rstrip":false,"normalized":false},{"id":102,"special":true,"content":"[CLS]","single_word":false,"lstrip":false,"rstrip":false,"normalized":false},{"id":103,"special":true,"content":"[SEP]","single_word":false,"lstrip":false,"rstrip":false,"normalized":false},{"id":104,"special":true,"content":"[MASK]","single_word":false,"lstrip":false,"rstrip":false,"normalized":false}],"normalizer":{"type":"BertNormalizer","clean_text":true,"handle_chinese_chars":true,"strip_accents":null,"lowercase":true},"pre_tokenizer":{"type":"BertPreTokenizer"},"post_processor":{"type":"TemplateProcessing","single":[{"SpecialToken":{"id":"[CLS]","type_id":0}},{"Sequence":{"id":"A","type_id":0}},{"SpecialToken":{"id":"[SEP]","type_id":0}}],"pair":[{"SpecialToken":{"id":"[CLS]","type_id":0}},{"Sequence":{"id":"A","type_id":0}},{"SpecialToken":{"id":"[SEP]","type_id":0}},{"Sequence":{"id":"B","type_id":1}},{"SpecialToken":{"id":"[SEP]","type_id":1}}],"special_tokens":{"[CLS]":{"id":"[CLS]","ids":[102],"tokens":["[CLS]"]},"[SEP]":{"id":"[SEP]","ids":[103],"tokens":["[SEP]"]}}},"decoder":{"type":"WordPiece","prefix":"##","cleanup":true},"model":{"type":"WordPiece","unk_token":"[UNK]","continuing_subword_prefix":"##","max_input_chars_per_word":100,"vocab":{"[PAD]":0,"[unused0]":1,"[unused1]":2,"[unused2]":3,"[unused3]":4,"[unused4]":5,"[unused5]":6,"[unused6]":7,"[unused7]":8,"[unused8]":9,"[unused9]":10,"[unused10]":11,"[unused11]":12,"[unused12]":13,"[unused13]":14,"[unused14]":15,"[unused15]":16,"[unused16]":17,"[unused17]":18,"[unused18]":19,"[unused19]":20,"[unused20]":21,"[unused21]":22,"[unused22]":23,"[unused23]":24,"[unused24]":25,"[unused25]":26,"[unused26]":27,"[unused27]":28,"[unused28]":29,"[unused29]":30,"[unused30]":31,"[unused31]":32,"[unused32]":33,"[unused33]":34,"[unused34]":35,"[unused35]":36,"[unused36]":37,"[unused37]":38,"[unused38]":39,"[unused39]":40,"[unused40]":41,"[unused41]":42,"[unused42]":43,"[unused43]":44,"[unused44]":45,"[unused45]":46,"[unused46]":47,"[unused47]":48,"[unused48]":49,"[unused49]":50,"[unused50]":51,"[unused51]":52,"[unused52]":53,"[unused53]":54,"[unused54]":55,"[unused55]":56,"[unused56]":57,"[unused57]":58,"[unused58]":59,"[unused59]":60,"[unused60]":61,"[unused61]":62,"[unused62]":63,"[unused63]":64,"[unused64]":65,"[unused65]":66,"[unused66]":67,"[unused67]":68,"[unused68]":69,"[unused69]":70,"[unused70]":71,"[unused71]":72,"[unused72]":73,"[unused73]":74,"[unused74]":75,"[unused75]":76,"[unused76]":77,"[unused77]":78,"[unused78]":79,"[unused79]":80,"[unused80]":81,"[unused81]":82,"[unused82]":83,"[unused83]":84,"[unused84]":85,"[unused85]":86,"[unused86]":87,"[unused87]":88,"[unused88]":89,"[unused89]":90,"[unused90]":91,"[unused91]":92,"[unused92]":93,"[unused93]":94,"[unused94]":95,"[unused95]":96,"[unused96]":97,"[unused97]":98,"[unused98]":99,"[unused99]":100,"[UNK]":101,"[CLS]":102,"[SEP]":103,"[MASK]":104,"t":105,"a":106,"##in":107,"##he":108,"##re":109,"##on":110,"the":111,"s":112,"##ti":113,"##er":114,"c":115,"o":116,"##en":117,"p":118,"##ed":119,"##al":120,"in":121,"##or":122,"##es":123,"w":124,"f":125,"##at":126,"m":127,"d":128,"##is":129,"an":130,"of":131,"b":132,"##an":133,"##tion":134,"##it":135,"##ro":136,"and":137,"##ar":138,"e":139,"##ing":140,"##ic":141,"##as":142,"##le":143,"re":144,"(":145,"n":146,"to":147,"##ent":148,"th":149,"##ation":150,"h":151,"l":152,"##us":153,"##el":154,"##ec":155,"##ac":156,"##om":157,"1":158,"g":159,"##et":160,"##ul":161,"##ol":162,"##im":163,"##un":164,"is":165,"##ur":166,"##ig":167,"for":168,"##os":169,"2":170,"v":171,"con":172,"##id":173,"##il":174,"##ve":175,"##ce":176,"st":177,"pro":178,"##ly":179,"##ith":180,"##ut":181,"r":182,"##ow":183,"##ot":184,"we":185,"al":186,"##st":187,"as":188,"##am":189,"with":190,"on":191,"##ter":192,"##if":193,"##od":194,"be":195,"##uc":196,"##res":197,"that":198,"ex":199,"##um":200,"##ab":201,"##em":202,"##ts":203,"##tic":204,".":205,"##qu":206,"##ver":207,"##ity":208,"com":209,"##ag":210,"##ir":211,"##ri":212,"##ad":213,"by":214,"##si":215,"##oc":216,"##ate":217,"res":218,"##ain":219,"are":220,"##ure":221,"ac":222,"de":223,"##ated":224,"##ment":225,"##).":226,"us":227,"##her":228,"##ati":229,"##ap":230,"k":231,"##00":232,"##pl":233,"or":234,"at":235,"##rom":236,"##op":237,"this":238,"3":239,"##ay":240,"was":241,"##..":242,"##ren":243,"0":244,"##ud":245,"##se":246,"##og":247,"##ted":248,"ch":249,"##ess":250,"##up":251,"wh":252,"comp":253,"un":254,"##ch":255,"it":256,"##ore":257,"##ell":258,"i":259,"[":260,"j":261,"se":262,"from":263,"im":264,"tr":265,"##th":266,"were":267,"##ant":268,"le":269,"##ers":270,"dis":271,"sh":272,"sp":273,"##ff":274,"=":275,"##ine":276,"##iz":277,"##tr":278,"en":279,"##orm":280,"##ical":281,"##te":282,"##vel":283,"##ub":284,"##red":285,"4":286,"ne":287,"##ations":288,"##and":289,"ad":290,"##per":291,"##igh":292,"##),":293,"##ich":294,"ap":295,"##iv":296,"##ase":297,"##ents":298,"he":299,"can":300,"##ies":301,"not":302,"##ge":303,"co":304,"5":305,"inc":306,"par":307,"##ug":308,"per":309,"##ign":310,"##ect":311,"##sion":312,"##duc":313,"##por":314,"sy":315,"y":316,"cont":317,"##able":318,"##ition":319,"##fe":320,"##form":321,"mod":322,"##ans":323,"##ous":324,"ha":325,"cl":326,"##est":327,"##ence":328,"##ion":329,"whe":330,"##01":331,"##und":332,"0.":333,"which":334,"##ip":335,"##ance":336,"sc":337,"##ther":338,"##ach":339,"##feren":340,"gen":341,"##age":342,"##der":343,"stud":344,"##tive":345,"di":346,"##lec":347,"ob":348,"##.,":349,"##ak":350,"ab":351,"dif":352,"##act":353,"##ial":354,"all":355,"##ys":356,"inter":357,"##....":358,"ass":359,"have":360,"##etw":361,"##pro":362,"##ary":363,"ind":364,"et":365,"me":366,"##ill":367,"pl":368,"200":369,"6":370,"19":371,"##end":372,"##all":373,"met":374,"ph":375,"##ue":376,"cell":377,"##ific":378,"##vi":379,"##ard":380,"##tions":381,"pre":382,"##ist":383,"##ple":384,"##ally":385,"##ors":386,"##our":387,"##olog":388,"##ib":389,"##ide":390,"int":391,"##ari":392,"##pres":393,"##yp":394,"resul":395,"eff":396,"dat":397,"##tim":398,"ro":399,"ar":400,"cons":401,"(1":402,"ev":403,"##ost":404,"show":405,"##str":406,"these":407,"des":408,"differen":409,"##stem":410,"str":411,"x":412,"##rib":413,"sub":414,"##ased":415,"##ear":416,"##ph":417,"##so":418,"gro":419,"##ork":420,"##enti":421,",":422,"sign":423,"##ong":424,"no":425,"##ia":426,"qu":427,"trans":428,"system":429,"pres":430,"rec":431,"##low":432,"##tiv":433,"has":434,"##enc":435,"##erm":436,"model":437,"anal":438,"am":439,"##ond":440,"##uch":441,"##erv":442,"##ber":443,"##een":444,"tim":445,"##ang":446,"z":447,"rel":448,"##ome":449,"7":450,"##pos":451,"##uld":452,"data":453,"##cess":454,"##ight":455,"##ative":456,"##ates":457,"##ular":458,"tw":459,"##0.":460,"there":461,"sim":462,"##etween":463,"##ast":464,"##ass":465,"det":466,"between":467,"##ep":468,"also":469,"cor":470,"##ugh":471,"##unc":472,"+":473,"reg":474,"more":475,"##ech":476,"spec":477,"resp":478,"##ory":479,"pati":480,"(2":481,"one":482,"##ility":483,"##ind":484,"##].":485,"sam":486,"using":487,"##port":488,"##pt":489,"##ord":490,"val":491,"pr":492,"8":493,"other":494,"pos":495,"##cl":496,"201":497,"##ution":498,"##ens":499,"##ound":500,"used":501,"two":502,"##ble":503,"u":504,"##rol":505,"than":506,"##ual":507,"man":508,"sec":509,"##ie":510,"##ied":511,"sup":512,"meth":513,"9":514,"##ater":515,"##dition":516,"##ail":517,"##ace":518,"##tain":519,"vari":520,"##out":521,"fig":522,"##gr":523,"##are":524,"##ack":525,"##ree":526,"study":527,"been":528,"incre":529,"##ms":530,"##ose":531,"time":532,"mo":533,"##iti":534,"each":535,"##.1":536,"col":537,"−":538,"how":539,"##aus":540,"num":541,"acc":542,"if":543,"gr":544,"results":545,")":546,"their":547,"ag":548,"fol":549,"##ely":550,"method":551,"may":552,"dist":553,"inf":554,"such":555,"out":556,"sur":557,"func":558,"dec":559,"##ating":560,"op":561,"em":562,"but":563,"so":564,"##ces":565,"10":566,"##ten":567,"patients":568,"gener":569,"##oth":570,"##ures":571,"do":572,"over":573,"##one":574,"af":575,"cells":576,"analys":577,"##rec":578,"-":579,"our":580,"appro":581,"where":582,"group":583,"##plic":584,"##ite":585,"##ting":586,"##1,":587,"fe":588,"follow":589,"##ice":590,"##ects":591,"form":592,"inv":593,"comm":594,"##ulation":595,"bi":596,"high":597,"##.2":598,"##ath":599,"ver":600,"es":601,"control":602,"when":603,"under":604,"med":605,"##hem":606,"exper":607,"##ments":608,"##lo":609,"set":610,"##........":611,"##ile":612,"##ould":613,"##ik":614,"level":615,"##oin":616,"only":617,"##oci":618,"meas":619,"perform":620,"##ture":621,"199":622,"def":623,"process":624,"##tical":625,"use":626,"prov":627,"fr":628,"low":629,"##av":630,"##velop":631,"##ax":632,"its":633,"tre":634,"fir":635,"##ases":636,"[1":637,"sol":638,"##ues":639,"##ization":640,"##ros":641,"##vely":642,"different":643,"signific":644,"##ized":645,"##ons":646,"after":647,"##na":648,"number":649,"will":650,"develop":651,"##ined":652,"##ust":653,"##yl":654,"both":655,"##iver":656,"partic":657,"##als":658,"sm":659,"##ature":660,"##-1":661,"function":662,"pol":663,"##arg":664,"##ology":665,"then":666,"1.":667,"##entr":668,"analysis":669,"##ability":670,"##les":671,"##ected":672,"##ever":673,"fact":674,"dur":675,"incl":676,"equ":677,"min":678,"##ici":679,"id":680,"##now":681,"##br":682,"##hed":683,"significant":684,"fi":685,"##ection":686,"##formation":687,"##hen":688,"exam":689,"into":690,"comple":691,"up":692,"some":693,"however":694,"obs":695,"bec":696,"work":697,"they":698,"non":699,"typ":700,"er":701,"##art":702,"expres":703,"##rent":704,"first":705,"disc":706,"##tivity":707,"##echn":708,"present":709,"##fig":710,"##ne":711,"##ym":712,"##ange":713,"##ark":714,"includ":715,"##lu":716,"produc":717,"cur":718,"dep":719,"##tal":720,"##2,":721,"ins":722,"##tein":723,"##tern":724,"loc":725,"aut":726,"measure":727,"mul":728,"##gen":729,"##acter":730,"##ared":731,"##fore":732,"techn":733,"##ency":734,"q":735,"##cer":736,"cr":737,"inte":738,"##inal":739,"mat":740,"dr":741,"##cc":742,"requ":743,"##ational":744,"“":745,"br":746,"##aph":747,"##action":748,"##ved":749,"##0,":750,"##hes":751,"observ":752,"##ays":753,"##tit":754,"most":755,"##ew":756,"##atic":757,"new":758,"##ause":759,"12":760,"bl":761,"##ex":762,"desc":763,"##ise":764,"resear":765,"associ":766,"##ize":767,"##erg":768,"rem":769,"experim":770,"cal":771,"##ft":772,"##ants":773,"##gor":774,"mon":775,"information":776,"ed":777,"##ties":778,"##rough":779,"##ild":780,"during":781,"##ric":782,"##ann":783,"##ks":784,"struc":785,"##ox":786,"protein":787,"##til":788,"giv":789,"##eld":790,"based":791,"##anc":792,"##ult":793,"##ung":794,"##old":795,"go":796,"found":797,"##.3":798,"##de":799,"##its":800,"##rel":801,"##iqu":802,"condition":803,"well":804,"vol":805,"app":806,"##ov":807,"car":808,"##entif":809,"##led":810,"##.5":811,"der":812,"char":813,"treat":814,"##fer":815,"##amet":816,"shown":817,"##ption":818,"##yn":819,"case":820,"anti":821,"##duced":822,"##ven":823,"##ages":824,"hy":825,"studies":826,"##ix":827,"poin":828,"##ute":829,"##ough":830,"obtain":831,"##ilar":832,"through":833,"cy":834,"##ective":835,"indic":836,"repres":837,"##1)":838,"proble":839,"##ane":840,"exp":841,"determ":842,"any":843,"class":844,"##ha":845,"ser":846,"el":847,"hig":848,"research":849,"##ement":850,"##usion":851,"##put":852,"requi":853,"##ings":854,"same":855,"test":856,"dem":857,"rece":858,"sin":859,"figure":860,"##to":861,":":862,"mic":863,"end":864,"##ines":865,"##10":866,"addition":867,"similar":868,"multi":869,"##ps":870,"know":871,"##ological":872,"av":873,"three":874,"elec":875,"##ene":876,"import":877,"fur":878,"##atis":879,"##alth":880,"lo":881,"##ress":882,"had":883,"15":884,"|":885,"##ale":886,"##ort":887,"##ium":888,"##1.":889,"##ported":890,"cap":891,"##gorith":892,"##ural":893,"&":894,"conc":895,"##sp":896,"##rect":897,"comput":898,"design":899,"algorith":900,"##ality":901,"term":902,"##ma":903,"pa":904,"##ake":905,"given":906,"effect":907,"##unt":908,"##etwork":909,"distrib":910,"further":911,"##ivid":912,"##],":913,"##sible":914,"##duction":915,"pred":916,"sug":917,"estim":918,"mem":919,"pe":920,"##ination":921,"treatment":922,"because":923,"propos":924,"##2)":925,"##ited":926,"identif":927,"##istic":928,"##eng":929,"##lis":930,"##tively":931,"##ade":932,"##ivers":933,"network":934,"##ential":935,"main":936,"fre":937,"##vious":938,"(3":939,"expression":940,"##ject":941,"##alu":942,"##com":943,"##con":944,"path":945,"imm":946,"health":947,"##itive":948,"hum":949,"lim":950,"[2":951,"small":952,"##hib":953,"character":954,"describ":955,"tem":956,"##lic":957,"##aining":958,"thus":959,"##ism":960,"##par":961,"<":962,"##struc":963,"##aw":964,"need":965,"##ently":966,"##3,":967,"could":968,"while":969,"##adi":970,"second":971,"line":972,"value":973,"##sc":974,"who":975,"oper":976,"syn":977,"##ok":978,"##iss":979,"##ob":980,"##ider":981,"following":982,"gene":983,"sugg":984,"pot":985,"bas":986,"##.4":987,"values":988,"would":989,"##ock":990,"##ulated":991,"calc":992,"order":993,"(19":994,"##resp":995,"year":996,"##nal":997,"paramet":998,"clin":999,"sequ":1000,"higher":1001,"##gan":1002,"##ities":1003,"##ful":1004,"##ator":1005,"##ier":1006,"evalu":1007,"respon":1008,"lik":1009,"##of":1010,"about":1011,"20":1012,"rate":1013,"##ains":1014,"add":1015,"provid":1016,"within":1017,"selec":1018,"##ode":1019,"table":1020,"11":1021,"##ning":1022,"##2.":1023,"##ples":1024,"region":1025,"##ian":1026,"∈":1027,"occ":1028,"##arge":1029,"pap":1030,"compared":1031,"represent":1032,"applic":1033,"##tt":1034,"dise":1035,"##rop":1036,"##ision":1037,"##4,":1038,"##ogr":1039,"find":1040,"13":1041,"##agn":1042,"pub":1043,"chang":1044,"methods":1045,"##ves":1046,"##-2":1047,"ma":1048,"levels":1049,"##ectively":1050,"gre":1051,"those":1052,"since":1053,"##iron":1054,"should":1055,"effects":1056,"##ically":1057,"observed":1058,"ke":1059,"important":1060,"previous":1061,"univers":1062,"##................":1063,"..":1064,"##the":1065,"sci":1066,"##inc":1067,"##sive":1068,"impro":1069,"##osis":1070,"activity":1071,"pat":1072,"current":1073,"due":1074,"norm":1075,"##ness":1076,"##amm":1077,"systems":1078,"##ily":1079,"att":1080,"##ics":1081,"imp":1082,"prob":1083,"sing":1084,"##face":1085,"##val":1086,"##ove":1087,"frequ":1088,"##ived":1089,"##ive":1090,"##plement":1091,"##ental":1092,"stand":1093,"te":1094,"##echan":1095,"ris":1096,"sch":1097,"state":1098,"##5,":1099,"mm":1100,"2.":1101,"ther":1102,"##atory":1103,"therefore":1104,"conf":1105,"fin":1106,"16":1107,"mean":1108,"pow":1109,"expl":1110,"associated":1111,"concentr":1112,"long":1113,"total":1114,"##other":1115,"individ":1116,"##respond":1117,"##tig":1118,"##0)":1119,"development":1120,"##ins":1121,"pop":1122,"1,":1123,"predic":1124,"##ital":1125,"grow":1126,"complex":1127,"14":1128,"consider":1129,"##ving":1130,"##view":1131,"##over":1132,"gl":1133,"##ty":1134,"large":1135,"prim":1136,"##ink":1137,"compar":1138,"approach":1139,"##iter":1140,"##rest":1141,"mechan":1142,"example":1143,"mark":1144,"##xt":1145,"##12":1146,"ele":1147,"aff":1148,"prot":1149,"performance":1150,"obtained":1151,"dom":1152,"##oid":1153,"specific":1154,"section":1155,"initi":1156,"den":1157,"commun":1158,"–":1159,"##endent":1160,"individual":1161,"##sed":1162,"su":1163,"many":1164,"tri":1165,"##ood":1166,"problem":1167,"human":1168,"##line":1169,"max":1170,"correspond":1171,"algorithm":1172,"##co":1173,"assum":1174,"increased":1175,"##ward":1176,"ep":1177,"18":1178,"beha":1179,"sever":1180,"comb":1181,"##iod":1182,"##lear":1183,"##af":1184,"##viron":1185,"result":1186,"structure":1187,"part":1188,"chem":1189,"##idence":1190,"optim":1191,"##hip":1192,"proper":1193,"del":1194,"##5.":1195,"general":1196,"phys":1197,"ref":1198,"##11":1199,"progr":1200,"extr":1201,"##fic":1202,"paper":1203,"(200":1204,"intro":1205,"##ross":1206,"behavi":1207,"bel":1208,"lab":1209,"##3.":1210,"type":1211,"##ry":1212,"##uce":1213,"reported":1214,"##4)":1215,"μ":1216,"##ences":1217,"serv":1218,"##6,":1219,"##4.":1220,"power":1221,"respectively":1222,"##ogen":1223,"university":1224,"##ergy":1225,"organ":1226,"fl":1227,"discus":1228,"decre":1229,"environ":1230,"ear":1231,"single":1232,"0.0":1233,"micro":1234,"standard":1235,"sym":1236,"##ified":1237,"##7,":1238,"##ission":1239,"ge":1240,"##50":1241,"increase":1242,"size":1243,"##ets":1244,"conditions":1245,"##cept":1246,"among":1247,"very":1248,"mater":1249,"##onic":1250,"##5)":1251,"sl":1252,"contr":1253,"##min":1254,"·":1255,"avail":1256,"pers":1257,"vis":1258,"occur":1259,"performed":1260,"signal":1261,"models":1262,"possible":1263,"ii":1264,"risk":1265,"auth":1266,"ext":1267,"lower":1268,"lead":1269,"invol":1270,"##ately":1271,"particip":1272,"##ick":1273,"##7.":1274,"period":1275,"##3)":1276,"##ced":1277,"response":1278,"less":1279,"##6.":1280,"field":1281,"rat":1282,"compon":1283,"analy":1284,"assess":1285,"inhib":1286,"100":1287,"disease":1288,"inves":1289,"##ns":1290,"interest":1291,"ca":1292,"let":1293,"##ference":1294,"##oph":1295,"concl":1296,"198":1297,"##ish":1298,"cases":1299,"inst":1300,"allow":1301,"groups":1302,"##verage":1303,"##cr":1304,"investig":1305,"##ograph":1306,"##ld":1307,"##8,":1308,"##ording":1309,"mor":1310,"sen":1311,"cent":1312,"point":1313,"cancer":1314,"##ension":1315,"##ables":1316,"immun":1317,"ret":1318,"without":1319,"years":1320,"die":1321,"fil":1322,"several":1323,"##med":1324,"##me":1325,"child":1326,"bu":1327,"gu":1328,"clinical":1329,"targ":1330,"##elf":1331,"real":1332,"energy":1333,"changes":1334,"##round":1335,"##omet":1336,"proposed":1337,"local":1338,"30":1339,"##ists":1340,"##though":1341,"{":1342,"##ores":1343,"##ices":1344,"techniqu":1345,"normal":1346,"##ner":1347,"##ained":1348,"particular":1349,"##icient":1350,"##ynam":1351,"/":1352,"##.;":1353,"##ogn":1354,"##onstr":1355,"described":1356,"significantly":1357,"##xim":1358,"##ke":1359,"##ateg":1360,"##6)":1361,"##ensity":1362,"although":1363,"##els":1364,"adv":1365,"##arm":1366,"showed":1367,"solution":1368,"##based":1369,"sit":1370,"step":1371,"correl":1372,"mut":1373,">":1374,"*":1375,"##ually":1376,"pattern":1377,"3.":1378,"four":1379,"prof":1380,"direct":1381,"distribution":1382,"##oy":1383,"‘":1384,"support":1385,"tak":1386,"electr":1387,"sour":1388,"cd":1389,"even":1390,"factors":1391,"##arch":1392,"##8.":1393,"demonstr":1394,"red":1395,"##jects":1396,"acid":1397,"[3":1398,"temper":1399,"##ety":1400,"##ification":1401,"shows":1402,"##9,":1403,"pri":1404,"relations":1405,"##utions":1406,"age":1407,"statis":1408,"ps":1409,"hyp":1410,"potential":1411,"##ength":1412,"tum":1413,"##acy":1414,"neg":1415,"err":1416,"##pe":1417,"##cri":1418,"sw":1419,"##imum":1420,"##ody":1421,"post":1422,"##ule":1423,"##sequ":1424,"according":1425,"##osp":1426,"available":1427,"##13":1428,"##ependent":1429,"abs":1430,"above":1431,"##reg":1432,"eng":1433,"pur":1434,"##ull":1435,"##ters":1436,"surface":1437,"act":1438,"collec":1439,"material":1440,"flu":1441,"##ication":1442,"cre":1443,"intr":1444,"them":1445,"##ger":1446,"role":1447,"##ector":1448,"soc":1449,"##io":1450,"environment":1451,"does":1452,"##onal":1453,"patient":1454,"##%)":1455,"##-3":1456,"integr":1457,"log":1458,"care":1459,"manag":1460,"see":1461,"##app":1462,"##ame":1463,"##ount":1464,"##ii":1465,"cir":1466,"molec":1467,"##ested":1468,"bound":1469,"vir":1470,"including":1471,"##9.":1472,"##andom":1473,"α":1474,"##ither":1475,"radi":1476,"change":1477,"lear":1478,"##uted":1479,"•":1480,"phase":1481,"related":1482,"depend":1483,"##ank":1484,"##tics":1485,"##cle":1486,"##20":1487,"samples":1488,"##oss":1489,"##7)":1490,"factor":1491,"activ":1492,"range":1493,"po":1494,"common":1495,"parameters":1496,"bet":1497,"sample":1498,"##ests":1499,"hand":1500,"##olution":1501,"ox":1502,"growth":1503,"rele":1504,"flow":1505,"water":1506,"##az":1507,"##org":1508,"tra":1509,"fac":1510,"≤":1511,"appl":1512,"##own":1513,"contrib":1514,"##hel":1515,"##pr":1516,"contin":1517,"##ules":1518,"key":1519,"hist":1520,"##omen":1521,"sum":1522,"##ude":1523,"##ave":1524,"##man":1525,"##ware":1526,"##ler":1527,"##anti":1528,"mg":1529,"here":1530,"##ival":1531,"positive":1532,"random":1533,"##atures":1534,"##sh":1535,"my":1536,"##8)":1537,"##cent":1538,"50":1539,"24":1540,"neu":1541,"back":1542,"therap":1543,"did":1544,"##asing":1545,"##dro":1546,"implement":1547,"before":1548,"target":1549,"##tional":1550,"##000":1551,"25":1552,"tas":1553,"\"":1554,"##odes":1555,"ach":1556,"17":1557,"being":1558,"##vers":1559,"prac":1560,"tiss":1561,"##idered":1562,"diagn":1563,"##cop":1564,"defined":1565,"##met":1566,"##15":1567,"average":1568,"ent":1569,"##ulations":1570,"theore":1571,"image":1572,"again":1573,"considered":1574,"##actions":1575,"und":1576,"##−1":1577,"species":1578,"review":1579,"##oh":1580,"##zed":1581,"##imension":1582,"##pa":1583,"provide":1584,"##ocy":1585,"±":1586,"##we":1587,"press":1588,"dynam":1589,"area":1590,"##ds":1591,"##mit":1592,"nec":1593,"##jor":1594,"differences":1595,"est":1596,"##//":1597,"##lood":1598,"rati":1599,"sk":1600,"##ances":1601,"##itor":1602,"consist":1603,"##istr":1604,"##ah":1605,"##row":1606,"position":1607,"hel":1608,"struct":1609,"frequency":1610,"##ae":1611,"##ype":1612,"ve":1613,"proced":1614,"terms":1615,"##och":1616,"influ":1617,"program":1618,"orig":1619,"##cep":1620,"##be":1621,"ir":1622,"top":1623,"multiple":1624,"sens":1625,"major":1626,"achie":1627,"##osph":1628,"bre":1629,"space":1630,"spe":1631,"presented":1632,"temperature":1633,"strateg":1634,"##14":1635,"##lished":1636,"##://":1637,"population":1638,"suc":1639,"##eff":1640,"conn":1641,"caus":1642,"##ledge":1643,"##ci":1644,"construc":1645,"ques":1646,"##cs":1647,"strong":1648,"measured":1649,"larg":1650,"fam":1651,"##rix":1652,"input":1653,"relationship":1654,"characteristic":1655,"(4":1656,"foc":1657,"improve":1658,"##ml":1659,"approxim":1660,"ever":1661,"##ustr":1662,"4.":1663,"iss":1664,"la":1665,"##not":1666,"##16":1667,"##ume":1668,"##ct":1669,"dev":1670,"quality":1671,"##ior":1672,"difference":1673,"##bers":1674,"##ords":1675,"either":1676,"cho":1677,"##25":1678,"pp":1679,"##asc":1680,"whether":1681,"mice":1682,"lif":1683,"nm":1684,"##19":1685,"inj":1686,"##erc":1687,"##ators":1688,"behavior":1689,"##bs":1690,"must":1691,"ang":1692,"##ison":1693,"nat":1694,"##ols":1695,"lay":1696,"##omic":1697,"drug":1698,"prom":1699,"initial":1700,"circ":1701,"blood":1702,"spectr":1703,"nuc":1704,"conclusion":1705,"stim":1706,"##ield":1707,"wor":1708,"~":1709,"##stand":1710,"various":1711,"accur":1712,"experiments":1713,"plas":1714,"##ploy":1715,"clear":1716,"##dr":1717,"2,":1718,"##hesis":1719,"soft":1720,"known":1721,"##au":1722,"##ible":1723,"linear":1724,"##atively":1725,"call":1726,"##bl":1727,"##9)":1728,"cost":1729,"exist":1730,"stat":1731,"dna":1732,"sequence":1733,"##ych":1734,"presence":1735,"##ised":1736,"corresponding":1737,"loss":1738,"suggest":1739,"require":1740,"##tro":1741,"artic":1742,"bo":1743,"##ibr":1744,"mass":1745,"defin":1746,"ow":1747,"social":1748,"sem":1749,"her":1750,"##lob":1751,"##iew":1752,"ill":1753,"matrix":1754,"length":1755,"cop":1756,"read":1757,"##way":1758,"##eration":1759,"##tice":1760,"required":1761,"variables":1762,"subs":1763,"##ton":1764,"applied":1765,"clus":1766,"knowledge":1767,"mus":1768,"separ":1769,"genes":1770,"public":1771,"##read":1772,"const":1773,"mal":1774,"evidence":1775,"1)":1776,"anim":1777,"yo":1778,"(199":1779,"chann":1780,"##ttp":1781,"##urn":1782,"another":1783,"properties":1784,"##ournal":1785,"...":1786,"card":1787,"instit":1788,"##know":1789,"focus":1790,"view":1791,"what":1792,"cat":1793,"##figure":1794,"every":1795,"##omy":1796,"reduced":1797,"experimental":1798,"might":1799,"wr":1800,"men":1801,"##eric":1802,"##ended":1803,"way":1804,"mit":1805,"conver":1806,"##17":1807,"children":1808,"##ron":1809,"conduc":1810,"##1).":1811,"reas":1812,"##tes":1813,";":1814,"developed":1815,"##inding":1816,"##for":1817,"##mission":1818,"##⁄4":1819,"schem":1820,"coun":1821,"determined":1822,"least":1823,"user":1824,"##ression":1825,"antib":1826,"made":1827,"##18":1828,"##isms":1829,"##5%":1830,"##abil":1831,"functions":1832,"continu":1833,"cm":1834,"##ored":1835,"application":1836,"management":1837,"times":1838,"much":1839,"concentration":1840,"##ern":1841,"now":1842,"detail":1843,"##hy":1844,"graph":1845,"good":1846,"limit":1847,"##see":1848,"intern":1849,"expos":1850,"follows":1851,"experi":1852,"appear":1853,"##uk":1854,"ec":1855,"differenti":1856,"ratio":1857,"prec":1858,"deg":1859,"tran":1860,"points":1861,"0,":1862,"%":1863,"##40":1864,"production":1865,"cer":1866,"##5).":1867,"##hold":1868,"##ina":1869,"vi":1870,"fail":1871,"lat":1872,"ce":1873,"off":1874,"##bility":1875,"##get":1876,"mix":1877,"proteins":1878,"##yr":1879,"##30":1880,"##land":1881,"features":1882,"better":1883,"hyper":1884,"prog":1885,"β":1886,"identified":1887,"##artment":1888,"sensi":1889,"direc":1890,"recept":1891,"output":1892,"stress":1893,"volume":1894,"##ably":1895,"sal":1896,"##verse":1897,"states":1898,"access":1899,"##ee":1900,"]":1901,"il":1902,"##bi":1903,"learning":1904,"ol":1905,"##ai":1906,"sus":1907,"source":1908,"##2).":1909,"types":1910,"##ouse":1911,"adj":1912,"error":1913,"participants":1914,"##uf":1915,"primary":1916,"ur":1917,"##ying":1918,"constr":1919,"note":1920,"40":1921,"down":1922,"##ument":1923,"transi":1924,"enh":1925,"early":1926,"##ck":1927,"(201":1928,"weight":1929,"relative":1930,"22":1931,"centr":1932,"##60":1933,"medical":1934,"##tis":1935,"included":1936,"open":1937,"##tically":1938,"##till":1939,"##aging":1940,"isol":1941,"##ra":1942,"′":1943,"##oint":1944,"cul":1945,"λ":1946,"parti":1947,"##ze":1948,"additional":1949,"[4":1950,"hen":1951,"phen":1952,"increasing":1953,"experiment":1954,"hosp":1955,"necess":1956,"##ret":1957,"##atisf":1958,"hydro":1959,"##ulate":1960,"##/2":1961,"##ars":1962,"mak":1963,"##ont":1964,"ml":1965,"provided":1966,"like":1967,"self":1968,"rob":1969,"##aps":1970,"##ries":1971,"his":1972,"lang":1973,"##ides":1974,"rates":1975,"days":1976,"##amp":1977,"month":1978,"prior":1979,"negative":1980,"ic":1981,"##den":1982,"theory":1983,"block":1984,"regard":1985,"compos":1986,"likely":1987,"conte":1988,"##oma":1989,"fix":1990,"authors":1991,"often":1992,"##))":1993,"life":1994,"detection":1995,"##utes":1996,"eas":1997,"resour":1998,"##ca":1999,"##22":2000,"short":2001,"cos":2002,"tissue":2003,"run":2004,"##oms":2005,"##time":2006,"women":2007,"understand":2008,"##ering":2009,"problems":2010,"light":2011,"##omm":2012,"psych":2013,"hom":2014,"decision":2015,"fa":2016,"phosph":2017,"index":2018,"interaction":2019,"phot":2020,"clos":2021,"link":2022,"×":2023,"report":2024,"##ights":2025,"5.":2026,"density":2027,"components":2028,"comparison":2029,"calculated":2030,"software":2031,"##pec":2032,"means":2033,"fib":2034,"address":2035,"##ste":2036,"equation":2037,"ste":2038,"node":2039,"applications":2040,"reve":2041,"journal":2042,"##80":2043,"satisf":2044,"util":2045,"##anced":2046,"##uture":2047,"technology":2048,"previously":2049,"maximum":2050,"che":2051,"##ring":2052,"##3).":2053,"##-4":2054,"load":2055,"consum":2056,"cross":2057,"0.00":2058,"domain":2059,"ul":2060,"adap":2061,"##ote":2062,"##ero":2063,"probability":2064,"nan":2065,"##iciency":2066,"introduction":2067,"science":2068,"vector":2069,"fem":2070,"##tered":2071,"received":2072,"##lik":2073,"tumor":2074,"summ":2075,"##21":2076,"still":2077,"resid":2078,"##aces":2079,"constant":2080,"http":2081,"##ways":2082,"right":2083,"##ird":2084,"##ss":2085,"##itro":2086,"characteristics":2087,"##abol":2088,"against":2089,"recogn":2090,"##mon":2091,"##70":2092,"bene":2093,"##ially":2094,"##less":2095,"bro":2096,"##oper":2097,"neur":2098,"##cin":2099,"determine":2100,"left":2101,"band":2102,"overall":2103,"doc":2104,"##ots":2105,"(5":2106,"23":2107,"success":2108,"##pri":2109,"greater":2110,"resist":2111,"##tor":2112,"make":2113,"estab":2114,"effective":2115,"findings":2116,"images":2117,"content":2118,"valid":2119,"arg":2120,"physical":2121,"mr":2122,"##ling":2123,"membr":2124,"processes":2125,"discussion":2126,"##inary":2127,"##6).":2128,"ra":2129,"##gf":2130,"functional":2131,"cri":2132,"fram":2133,"employ":2134,"reduction":2135,"##lying":2136,"##rie":2137,"educ":2138,"reflec":2139,"interp":2140,"impact":2141,"liter":2142,"exc":2143,"contrast":2144,"##--":2145,"##izing":2146,"pair":2147,"article":2148,"few":2149,"##ges":2150,"recent":2151,"wee":2152,"arch":2153,"##24":2154,"##vant":2155,"##more":2156,"cardi":2157,"future":2158,"free":2159,"body":2160,"ide":2161,"minim":2162,"percent":2163,"electro":2164,"##23":2165,"evaluation":2166,"##ems":2167,"via":2168,"seg":2169,"econ":2170,"##table":2171,"best":2172,"##pose":2173,"##ogene":2174,"mac":2175,"diffic":2176,"simple":2177,"##ole":2178,"##zym":2179,"visual":2180,"day":2181,"expected":2182,"##__":2183,"distance":2184,"hypot":2185,"across":2186,"seen":2187,"task":2188,"ax":2189,"techniques":2190,"##4).":2191,"##omes":2192,"labor":2193,"φ":2194,"##lation":2195,"##aneous":2196,"##7).":2197,"langu":2198,"glob":2199,"##uit":2200,"##roph":2201,"##itation":2202,"##term":2203,"sa":2204,"next":2205,"mar":2206,"nodes":2207,"training":2208,"##bo":2209,"yield":2210,"scale":2211,"include":2212,"suff":2213,"question":2214,"##ching":2215,"brain":2216,"hence":2217,"##ino":2218,"##ta":2219,"context":2220,"##ape":2221,"active":2222,"therapy":2223,"capac":2224,"σ":2225,"(1)":2226,"national":2227,"cour":2228,"independent":2229,"protoc":2230,"##di":2231,"count":2232,"##edi":2233,"##8).":2234,"##pling":2235,"pul":2236,"dri":2237,"##75":2238,"activation":2239,"10.":2240,"pressure":2241,"60":2242,"rev":2243,"fund":2244,"##ople":2245,"##roscop":2246,"nor":2247,"definition":2248,"variable":2249,"play":2250,"##ysi":2251,"along":2252,"##ams":2253,"proof":2254,"whereas":2255,"formation":2256,"simulation":2257,"polic":2258,"##yst":2259,"medic":2260,"bar":2261,"altern":2262,"##ired":2263,"mechanism":2264,"theorem":2265,"lip":2266,"##aches":2267,"transfer":2268,"later":2269,"##vent":2270,"molecular":2271,"procedure":2272,"constrain":2273,"association":2274,"demonstrated":2275,"star":2276,"site":2277,"hospital":2278,"help":2279,"binding":2280,"she":2281,"##ession":2282,"##ij":2283,"pack":2284,"finally":2285,"(0.":2286,"asp":2287,"coeff":2288,"service":2289,"##ids":2290,"coll":2291,"##1;":2292,"##ool":2293,"displ":2294,"enc":2295,"involved":2296,"##wh":2297,"##ray":2298,"##active":2299,"les":2300,"##by":2301,"ampl":2302,"reveal":2303,"transcri":2304,"subjects":2305,"ein":2306,"processing":2307,"sn":2308,"##duce":2309,"##lex":2310,"eth":2311,"fore":2312,"ci":2313,"dig":2314,"provides":2315,"rather":2316,"28":2317,"parameter":2318,"∑":2319,"δ":2320,"##tle":2321,"search":2322,"author":2323,"obj":2324,"people":2325,"areas":2326,"full":2327,"expressed":2328,"li":2329,"nucle":2330,"larger":2331,"component":2332,"situ":2333,"dimension":2334,"tex":2335,"reason":2336,"21":2337,"treated":2338,"carri":2339,"regions":2340,"##tering":2341,"##9).":2342,"culture":2343,"##spec":2344,"≥":2345,"feed":2346,"concentrations":2347,"increases":2348,"metabol":2349,"selected":2350,"##ire":2351,"##lish":2352,"criter":2353,"measurements":2354,"##=1":2355,"##90":2356,"able":2357,"technique":2358,"confir":2359,"generated":2360,"certain":2361,"θ":2362,"admin":2363,"correlation":2364,"center":2365,"##go":2366,"##10.":2367,"chrom":2368,"0.5":2369,"family":2370,"∂":2371,"hem":2372,"##fs":2373,"individuals":2374,"##ascular":2375,"##ata":2376,"##ions":2377,"product":2378,"limited":2379,"##38":2380,"26":2381,"below":2382,"##);":2383,"##let":2384,"air":2385,"##bit":2386,"reduc":2387,"surv":2388,"super":2389,"##pression":2390,"peak":2391,"exten":2392,"engine":2393,"usa":2394,"department":2395,"near":2396,"statistical":2397,"[5":2398,"world":2399,"ms":2400,"##vention":2401,"→":2402,"furthermore":2403,"natural":2404,"##vere":2405,"vs":2406,"amount":2407,"consequ":2408,"optimal":2409,"stage":2410,"memory":2411,"surve":2412,"sympt":2413,"##iting":2414,"##78":2415,"γ":2416,"##off":2417,"containing":2418,"elements":2419,"impl":2420,"##orph":2421,"##ply":2422,"6.":2423,"vers":2424,"(2)":2425,"reaction":2426,"##stric":2427,"moreover":2428,"resulting":2429,"##vities":2430,"na":2431,"##isc":2432,"ess":2433,"autom":2434,"central":2435,"soci":2436,"move":2437,"##ours":2438,"##gl":2439,"attrib":2440,"##0).":2441,"last":2442,"channel":2443,"enzym":2444,"carb":2445,"##ones":2446,"##cd":2447,"iv":2448,"networks":2449,"taken":2450,"polym":2451,"cycl":2452,"chr":2453,"##here":2454,"##ash":2455,"##come":2456,"##lamm":2457,"record":2458,"##ient":2459,"degree":2460,"though":2461,"repe":2462,"##alle":2463,"##ground":2464,"patterns":2465,"scal":2466,"complete":2467,"concer":2468,"lines":2469,"reference":2470,"fit":2471,"##ography":2472,"events":2473,"layer":2474,"##ising":2475,"##acts":2476,"spati":2477,"consistent":2478,"1⁄4":2479,"side":2480,"##ections":2481,"princ":2482,"##lor":2483,"structures":2484,"users":2485,"infection":2486,"highly":2487,"##35":2488,"3,":2489,"detected":2490,"##des":2491,"##agne":2492,"ct":2493,"sites":2494,"ability":2495,"influence":2496,"##inant":2497,"communication":2498,"months":2499,"##load":2500,"literature":2501,"##uring":2502,"##26":2503,"diff":2504,"'":2505,"##hr":2506,"chall":2507,"##oles":2508,"##urb":2509,"##99":2510,"medium":2511,"bacter":2512,"##onses":2513,"##ports":2514,"unit":2515,"selection":2516,"action":2517,"materials":2518,"analyses":2519,"##equ":2520,"rap":2521,"services":2522,"global":2523,"##oun":2524,"basis":2525,"##da":2526,"##order":2527,"responses":2528,"plant":2529,"wave":2530,"final":2531,"27":2532,"directly":2533,"##tivities":2534,"##2-":2535,"toward":2536,"difficult":2537,"necessary":2538,"five":2539,"nature":2540,"version":2541,"eu":2542,"##2;":2543,"##reen":2544,"##like":2545,"cannot":2546,"hal":2547,"##45":2548,"analyzed":2549,"##cy":2550,"##+1":2551,"##(1":2552,"descri":2553,"measures":2554,"por":2555,"computer":2556,"##28":2557,"##bor":2558,"##rence":2559,"measurement":2560,"##mm":2561,"possi":2562,"##tre":2563,"poly":2564,"international":2565,"appropri":2566,"object":2567,"series":2568,"##27":2569,"atten":2570,"mechanisms":2571,"transform":2572,"compound":2573,"benef":2574,"project":2575,"genetic":2576,"##son":2577,"##ceed":2578,"aim":2579,"studied":2580,"##aced":2581,"wid":2582,"29":2583,"students":2584,"americ":2585,"subsequ":2586,"##29":2587,"##medi":2588,"mid":2589,"numer":2590,"##65":2591,"original":2592,"volt":2593,"followed":2594,"estimated":2595,"lack":2596,"datab":2597,"##ury":2598,"food":2599,"##int":2600,"quanti":2601,"feature":2602,"maintain":2603,"##itude":2604,"map":2605,"affect":2606,"event":2607,"place":2608,"##icity":2609,"##rial":2610,"published":2611,"fixed":2612,"##epti":2613,"concept":2614,"##uration":2615,"critical":2616,"algorithms":2617,"special":2618,"rest":2619,"##ining":2620,"##acc":2621,"sil":2622,"##ework":2623,"doi":2624,"##eth":2625,"membrane":2626,"serum":2627,"pi":2628,"receptor":2629,"##gery":2630,"scheme":2631,"##izes":2632,"diagnos":2633,"##erve":2634,"##1-":2635,"take":2636,"reduce":2637,"35":2638,"##eline":2639,"decrease":2640,"framework":2641,"##34":2642,"##reshold":2643,"##iff":2644,"indicate":2645,"respect":2646,"language":2647,"ig":2648,"sex":2649,"##ih":2650,"induced":2651,"equal":2652,"cam":2653,"noise":2654,"assign":2655,"exec":2656,"subst":2657,"ens":2658,"37":2659,"synt":2660,"resistance":2661,"indicated":2662,"detect":2663,"decreased":2664,"##otype":2665,"##oding":2666,"##induced":2667,"continuous":2668,"##urs":2669,"account":2670,"##wise":2671,"neuro":2672,"trad":2673,"##ify":2674,"pain":2675,"##astic":2676,"##brid":2677,"##antit":2678,"bal":2679,"excl":2680,"diss":2681,"##no":2682,"accuracy":2683,"##position":2684,"##cm":2685,"##back":2686,"activities":2687,"approaches":2688,"##related":2689,"element":2690,"strategy":2691,"prol":2692,"197":2693,"school":2694,"therm":2695,"evolution":2696,"interactions":2697,"##encies":2698,"τ":2699,"useful":2700,"magn":2701,"combination":2702,"©":2703,"gas":2704,"har":2705,"restric":2706,"setting":2707,"coord":2708,"mach":2709,"##any":2710,"cyt":2711,"testing":2712,"sets":2713,"7.":2714,"around":2715,"diagnosis":2716,"##uz":2717,"exposure":2718,"agg":2719,"heter":2720,"##pecially":2721,"called":2722,"hard":2723,"##ique":2724,"##amin":2725,"status":2726,"solutions":2727,"conducted":2728,"##hers":2729,"##ream":2730,"relatively":2731,"tests":2732,"tested":2733,"si":2734,"added":2735,"##gether":2736,"code":2737,"together":2738,"far":2739,"background":2740,"##3;":2741,"tub":2742,"identify":2743,"get":2744,"##0;":2745,"##2(":2746,"speed":2747,"efficiency":2748,"dynamic":2749,"dose":2750,"##ulin":2751,"##36":2752,"market":2753,"##sm":2754,"wa":2755,"propor":2756,"threshold":2757,"equival":2758,"##%,":2759,"collected":2760,"colum":2761,"da":2762,"mess":2763,"needed":2764,"third":2765,"[6":2766,"illustr":2767,"rad":2768,"##ites":2769,"##ered":2770,"##rs":2771,"produced":2772,"having":2773,"eq":2774,"##type":2775,"##aff":2776,"##ochem":2777,"wind":2778,"##igr":2779,"plasma":2780,"six":2781,"##cell":2782,"##inf":2783,"##ga":2784,"quantit":2785,"iii":2786,"##ift":2787,"##acted":2788,"sequences":2789,"assessment":2790,"##sk":2791,"##-5":2792,"##0.0":2793,"practice":2794,"head":2795,"ann":2796,"surgery":2797,"distributed":2798,"zero":2799,"products":2800,"##tex":2801,"##bed":2802,"recently":2803,"exhib":2804,"##eed":2805,"assume":2806,"##agnetic":2807,"cou":2808,"diab":2809,"supported":2810,"##iving":2811,"estimate":2812,"##ert":2813,"advant":2814,"great":2815,"reli":2816,"bus":2817,"swit":2818,"##aly":2819,"stimul":2820,"##4;":2821,"##otyp":2822,"##ope":2823,"lit":2824,"especially":2825,"appropriate":2826,"##itect":2827,"chemical":2828,"spatial":2829,"enti":2830,"oc":2831,"##ymph":2832,"80":2833,"##uble":2834,"variation":2835,"cause":2836,"hold":2837,"##ancy":2838,"delay":2839,"evaluated":2840,"pd":2841,"survival":2842,"##set":2843,"##anes":2844,"##imin":2845,"##mma":2846,"##apping":2847,"implementation":2848,"1).":2849,"repl":2850,"conven":2851,"morph":2852,"ρ":2853,"##most":2854,"##95":2855,"transmission":2856,"rapid":2857,"acqu":2858,"cycle":2859,"paralle":2860,"revealed":2861,"dam":2862,"animals":2863,"##1(":2864,"derived":2865,"##ery":2866,"score":2867,"whole":2868,"upon":2869,"education":2870,"ww":2871,"voltage":2872,"##ologies":2873,"##que":2874,"build":2875,"location":2876,"pharm":2877,"##,”":2878,"##grad":2879,"words":2880,"##aries":2881,"land":2882,"##ula":2883,"relevant":2884,"##comes":2885,"basic":2886,"operation":2887,"distinc":2888,"death":2889,"allows":2890,"physi":2891,"##entially":2892,"programm":2893,"incub":2894,"##ense":2895,"regul":2896,"##rient":2897,"##33":2898,"experience":2899,"capacity":2900,"##67":2901,"##iness":2902,"##plications":2903,"##do":2904,"##6;":2905,"fat":2906,"π":2907,"##5;":2908,"bone":2909,"own":2910,"inhibit":2911,"recomm":2912,"monitor":2913,"mes":2914,"mas":2915,"gover":2916,"architect":2917,"imaging":2918,"acknow":2919,"##ferences":2920,"##esis":2921,"##specific":2922,"relation":2923,"internal":2924,"##ulf":2925,"cogn":2926,"germ":2927,"community":2928,"protocol":2929,"virus":2930,"vel":2931,"##reng":2932,"designed":2933,"understanding":2934,"refer":2935,"##ographic":2936,"##eness":2937,"screen":2938,"lymph":2939,"prop":2940,"fo":2941,"##64":2942,"##istry":2943,"pass":2944,"list":2945,"avoid":2946,"arter":2947,"##ott":2948,"sensitivity":2949,"subject":2950,"policy":2951,"outcomes":2952,"biom":2953,"48":2954,"mode":2955,"##arily":2956,"heart":2957,"law":2958,"examined":2959,"approximately":2960,"nam":2961,"belie":2962,"##cence":2963,"##ysis":2964,"resources":2965,"buff":2966,"##ops":2967,"others":2968,"hep":2969,"bur":2970,"base":2971,"gluc":2972,"weak":2973,"##igen":2974,"ben":2975,"broad":2976,"define":2977,"requires":2978,"supplement":2979,"rna":2980,"##98":2981,"repro":2982,"leg":2983,"##enced":2984,"##odies":2985,"##37":2986,"web":2987,"##anning":2988,"iee":2989,"##erved":2990,"discussed":2991,"done":2992,"liver":2993,"kin":2994,"suggested":2995,"correct":2996,"online":2997,"classification":2998,"history":2999,"#":3000,"##atin":3001,"usually":3002,"investigated":3003,"##mic":3004,"rout":3005,"scen":3006,"improved":3007,"just":3008,"criteria":3009,"##7;":3010,"##9;":3011,"(3)":3012,"generally":3013,"generation":3014,"emerg":3015,"interesting":3016,"contains":3017,"failure":3018,"ieee":3019,"##urity":3020,"##ocytes":3021,"##terior":3022,"streng":3023,"##isted":3024,"##ectiv":3025,"successful":3026,"agents":3027,"##ht":3028,"##ategor":3029,"##zy":3030,"assay":3031,"##oti":3032,"las":3033,"you":3034,"oxid":3035,"www":3036,"##ral":3037,"##overy":3038,"smaller":3039,"4,":3040,"direction":3041,"medicine":3042,"rot":3043,"45":3044,"novel":3045,"institute":3046,"inflamm":3047,"##ict":3048,"symptoms":3049,"medi":3050,"##hz":3051,"substr":3052,"##ands":3053,"##la":3054,"##100":3055,"muscle":3056,"##hol":3057,"administr":3058,"represents":3059,"issue":3060,"##eu":3061,"##plas":3062,"become":3063,"##hest":3064,"carried":3065,"##1–":3066,"numbers":3067,"maxim":3068,"##gn":3069,"##ww":3070,"##trans":3071,"signals":3072,"##une":3073,"##sw":3074,"tox":3075,"mir":3076,"core":3077,"conclusions":3078,"environmental":3079,"facil":3080,"electron":3081,"suggests":3082,"ta":3083,"##dependent":3084,"##olar":3085,"rats":3086,"members":3087,"until":3088,"regression":3089,"##norm":3090,"[7":3091,"course":3092,"tree":3093,"origin":3094,"outcome":3095,"neut":3096,"needs":3097,"parallel":3098,"##3-":3099,"(6":3100,"transition":3101,"rs":3102,"pan":3103,"##.)":3104,"upper":3105,"0.8":3106,"cp":3107,"du":3108,"combined":3109,"2)":3110,"caused":3111,"##2]":3112,"##day":3113,"lemma":3114,"soil":3115,"##orption":3116,"sources":3117,"promot":3118,"##mod":3119,"achieve":3120,"sensor":3121,"∫":3122,"##rome":3123,"##osen":3124,"##ember":3125,"beg":3126,"veloc":3127,"guid":3128,"gly":3129,"tool":3130,"laboratory":3131,"##air":3132,"cut":3133,"##1]":3134,"##xi":3135,"##tices":3136,"##use":3137,"evaluate":3138,"database":3139,"##operative":3140,"govern":3141,"minimum":3142,"squ":3143,"equations":3144,"##ili":3145,"respond":3146,"##otic":3147,"transcription":3148,"∗":3149,"specif":3150,"controls":3151,"transport":3152,"##fr":3153,"34":3154,"mob":3155,"close":3156,"biological":3157,"lin":3158,"##8;":3159,"fraction":3160,"categor":3161,"##ley":3162,"force":3163,"chronic":3164,"intensity":3165,"##ending":3166,"severe":3167,"frag":3168,"##orn":3169,"0.01":3170,"##iform":3171,"##2),":3172,"tradition":3173,"tempor":3174,"##vari":3175,"##ls":3176,"##gg":3177,"achieved":3178,".0":3179,"##arc":3180,"pm":3181,"young":3182,"lung":3183,"##otor":3184,"##ead":3185,"rang":3186,"neigh":3187,"fer":3188,"##39":3189,"!":3190,"interval":3191,"engineering":3192,"##rope":3193,"sout":3194,"##cp":3195,"##certain":3196,"segment":3197,"countries":3198,"scenari":3199,"objects":3200,"objective":3201,"##aged":3202,"person":3203,"36":3204,"[8":3205,"##li":3206,"representation":3207,"wi":3208,"recon":3209,"mill":3210,"md":3211,"motion":3212,"##linear":3213,"##ye":3214,"0.4":3215,"turn":3216,"##unction":3217,"##level":3218,"inform":3219,"particularly":3220,"##www":3221,"instead":3222,"true":3223,"##king":3224,"ω":3225,"give":3226,"##aves":3227,"poor":3228,"stable":3229,"agent":3230,"track":3231,"##imensional":3232,"##cript":3233,"##ou":3234,"synthesis":3235,"strategies":3236,"##mitted":3237,"##tif":3238,"agre":3239,"adop":3240,"survey":3241,"##plicit":3242,"importance":3243,"observations":3244,"incor":3245,"once":3246,"check":3247,"##bp":3248,"##ements":3249,"$":3250,"princip":3251,"##ingu":3252,"spectrum":3253,"fast":3254,"##ternal":3255,"##rup":3256,"##ats":3257,"american":3258,"always":3259,"pepti":3260,"estimation":3261,"exact":3262,"baseline":3263,"device":3264,"##lin":3265,"costs":3266,"text":3267,"cyto":3268,"##bly":3269,"trials":3270,"discre":3271,"weeks":3272,"perce":3273,"ion":3274,"8.":3275,"structural":3276,"dynamics":3277,"##roup":3278,"clearly":3279,"society":3280,"ns":3281,"acknowled":3282,"##atives":3283,"##ipp":3284,"mortal":3285,"neurons":3286,"secondary":3287,"organization":3288,"90":3289,"##aring":3290,"32":3291,"nut":3292,"issues":3293,"uses":3294,"bm":3295,"##-6":3296,"tend":3297,"##press":3298,"produce":3299,"##etes":3300,"##ellular":3301,"existing":3302,"trial":3303,"versus":3304,"pen":3305,"cluster":3306,"33":3307,"inhibition":3308,"##hic":3309,"van":3310,"##uments":3311,"ng":3312,"don":3313,"##abor":3314,"ut":3315,"efficient":3316,"##97":3317,"stability":3318,"cult":3319,"upd":3320,"label":3321,"indicates":3322,"hypothesis":3323,"denot":3324,"acute":3325,"##ales":3326,"choice":3327,"fluores":3328,"ip":3329,"##ults":3330,"##ba":3331,"config":3332,"devi":3333,"absence":3334,"vitro":3335,"isolated":3336,"consumption":3337,"coordin":3338,"tren":3339,"ti":3340,"mel":3341,"constraints":3342,"almost":3343,"##amine":3344,"prep":3345,"rule":3346,"##ometric":3347,"cryst":3348,"deriv":3349,"alternative":3350,"##agr":3351,"##dom":3352,"##asis":3353,"signaling":3354,"display":3355,"surg":3356,"38":3357,"emp":3358,"scores":3359,"instance":3360,"##cont":3361,"##helial":3362,"prevent":3363,"##tioned":3364,"##1),":3365,"identification":3366,"document":3367,"sat":3368,"##plication":3369,"spect":3370,"europe":3371,"##nt":3372,"##omer":3373,"cle":3374,"color":3375,"introduced":3376,"##nas":3377,"optimization":3378,"diseases":3379,"mortality":3380,"##fl":3381,"##)(":3382,"thick":3383,"##9]":3384,"##ready":3385,"duration":3386,"entire":3387,"viv":3388,"##rem":3389,"2.1":3390,"lig":3391,"deliver":3392,"##ached":3393,"##ident":3394,"##known":3395,"interface":3396,"##uary":3397,"male":3398,"estimates":3399,"acknowledg":3400,"describe":3401,"od":3402,"au":3403,"##68":3404,"composition":3405,"##pled":3406,"affected":3407,"release":3408,"##ficial":3409,"devices":3410,"bir":3411,"leads":3412,"sched":3413,"##emic":3414,"##ada":3415,"plan":3416,"home":3417,"##etr":3418,"##hing":3419,"requirements":3420,"resolution":3421,"##ectors":3422,"preval":3423,"ε":3424,"exists":3425,"##1/":3426,"finite":3427,"##32":3428,"##mail":3429,"pathway":3430,"cellular":3431,"strength":3432,"kind":3433,"##dimensional":3434,"highest":3435,"##ygen":3436,"half":3437,"inn":3438,"##col":3439,"already":3440,"little":3441,"##arr":3442,"ground":3443,"forms":3444,"collection":3445,"slight":3446,"(198":3447,"slow":3448,"never":3449,"ts":3450,"optical":3451,"established":3452,"similarly":3453,"unique":3454,"##bol":3455,"##ious":3456,"##uded":3457,"external":3458,"##pp":3459,"dos":3460,"grad":3461,"indeed":3462,"diet":3463,"mc":3464,"accum":3465,"mil":3466,"strain":3467,"1:":3468,"making":3469,"##kg":3470,"pt":3471,"um":3472,"carbon":3473,"datas":3474,"mouse":3475,"##ises":3476,"##elling":3477,"##3–":3478,"breast":3479,"complexity":3480,"yet":3481,"2-":3482,"rt":3483,"orient":3484,"cand":3485,"desp":3486,"##agen":3487,"cs":3488,"whose":3489,"longer":3490,"instr":3491,"remains":3492,"rules":3493,"aug":3494,"##48":3495,"ter":3496,"vary":3497,"curve":3498,"filter":3499,"2).":3500,"##omb":3501,"##isation":3502,"accep":3503,"##acement":3504,"##sch":3505,"vide":3506,"##hal":3507,"##ocks":3508,"70":3509,"magnetic":3510,"uncertain":3511,"recognition":3512,"##eral":3513,"acad":3514,"errors":3515,"##ibri":3516,"occurs":3517,"recur":3518,"##berg":3519,"buffer":3520,"populations":3521,"correc":3522,"improvement":3523,"cognitive":3524,"ultr":3525,"interpret":3526,"##apy":3527,"plants":3528,"##ulating":3529,"wild":3530,"velocity":3531,"modeling":3532,"despite":3533,"aggreg":3534,"##):":3535,"colle":3536,"##uscript":3537,"##cal":3538,"microscop":3539,"shape":3540,"hours":3541,"chosen":3542,"dys":3543,"induc":3544,"wall":3545,"dm":3546,"##dl":3547,"contain":3548,"virt":3549,"∆":3550,"plate":3551,"equivalent":3552,"5,":3553,"##ibility":3554,"edge":3555,"migr":3556,"##erate":3557,"stor":3558,"purpose":3559,"regarding":3560,"animal":3561,"0.1":3562,"##tosis":3563,"##itable":3564,"steps":3565,"alle":3566,"##eti":3567,"recorded":3568,"3.1":3569,"vivo":3570,"gain":3571,"##abilities":3572,"##orb":3573,"tasks":3574,"asym":3575,"##96":3576,"attention":3577,"reports":3578,"##nf":3579,"boundary":3580,"os":3581,"antibody":3582,"express":3583,"##ches":3584,"contact":3585,"##state":3586,"economic":3587,"challeng":3588,"##uct":3589,"chain":3590,"immedi":3591,"percentage":3592,"leading":3593,"security":3594,"##lier":3595,"expect":3596,"sampling":3597,"symmet":3598,"constit":3599,"ful":3600,"assessed":3601,"##group":3602,"draw":3603,"diabetes":3604,"molecules":3605,"white":3606,"regulation":3607,"divid":3608,"##94":3609,"ni":3610,"##ometry":3611,"div":3612,"observation":3613,"##ogenesis":3614,"equil":3615,"##itten":3616,"ten":3617,"##ystem":3618,"goal":3619,"vehic":3620,"finding":3621,"procedures":3622,"elev":3623,"hor":3624,"saf":3625,"##itis":3626,"##...":3627,"abstr":3628,"candid":3629,"working":3630,"##9].":3631,"##normal":3632,"essential":3633,"zh":3634,"pcr":3635,"attem":3636,"synthe":3637,"##td":3638,"computed":3639,"china":3640,"00":3641,"##3]":3642,"controlled":3643,"dependent":3644,"rh":3645,"distinct":3646,"das":3647,"past":3648,"accepted":3649,"mobile":3650,"##77":3651,"architecture":3652,"emission":3653,"sd":3654,"##max":3655,"##anol":3656,"net":3657,"pc":3658,"put":3659,"units":3660,"}":3661,"colon":3662,"##ogenic":3663,"##atically":3664,"2.2":3665,"##mark":3666,"glucose":3667,"wide":3668,"gives":3669,"##ney":3670,"##fold":3671,"female":3672,"##struction":3673,"tools":3674,"spl":3675,"examples":3676,"nd":3677,"seed":3678,"##aft":3679,"mainly":3680,"enhance":3681,"bes":3682,"##with":3683,"compounds":3684,"consists":3685,"##faces":3686,"neural":3687,"##che":3688,"attack":3689,"hiv":3690,"prepar":3691,"ga":3692,"1.2":3693,"priv":3694,"mom":3695,"cust":3696,"specifically":3697,"coefficient":3698,"apop":3699,"##rents":3700,"robust":3701,"exch":3702,"particles":3703,"rank":3704,"accept":3705,"located":3706,"page":3707,"[10":3708,"1.0":3709,"##nd":3710,"##inter":3711,"ss":3712,"property":3713,"##otherapy":3714,"jap":3715,"represented":3716,"easily":3717,"##umin":3718,"##year":3719,"##sen":3720,"epit":3721,"becomes":3722,"incorpor":3723,"column":3724,"monitoring":3725,"prolif":3726,"regular":3727,"commit":3728,"##1].":3729,"generate":3730,"##ched":3731,"##oe":3732,"appears":3733,"##acellular":3734,"##tric":3735,"pet":3736,"root":3737,"hybrid":3738,"predicted":3739,"makes":3740,"inten":3741,"noted":3742,"computing":3743,"conventional":3744,"compare":3745,"joint":3746,"##opath":3747,"##enz":3748,"##pub":3749,"questions":3750,"om":3751,"##74":3752,"includes":3753,"predict":3754,"green":3755,"description":3756,"host":3757,"(9":3758,"sent":3759,"##85":3760,"1.1":3761,"administration":3762,"##encing":3763,"tax":3764,"characterized":3765,"subsequent":3766,"##pi":3767,"demonstrate":3768,"##ocation":3769,"synd":3770,"injury":3771,"##atric":3772,"##chem":3773,"‖":3774,"developing":3775,"##ka":3776,"connected":3777,"black":3778,"details":3779,"exerc":3780,"angle":3781,"investigate":3782,"traditional":3783,"##76":3784,"seman":3785,"polar":3786,"digital":3787,"##emia":3788,"flex":3789,"typical":3790,"parts":3791,"ast":3792,"modified":3793,"##point":3794,"##3),":3795,"extent":3796,"##aching":3797,"cere":3798,"actual":3799,"##oking":3800,"transl":3801,"partial":3802,"currently":3803,"confirmed":3804,"formal":3805,"##acture":3806,"conflic":3807,"##pc":3808,"√":3809,"damage":3810,"##9–":3811,"implemented":3812,"epid":3813,"##dle":3814,"##orts":3815,"orth":3816,"bond":3817,"##2].":3818,"##bm":3819,"degrad":3820,"tissues":3821,"profile":3822,"enzyme":3823,"word":3824,"##2/":3825,"depth":3826,"η":3827,"sections":3828,"##entific":3829,"##ameter":3830,"##)-":3831,"intervention":3832,"##va":3833,"towards":3834,"variety":3835,"##ker":3836,"heat":3837,"prediction":3838,"(4)":3839,"extension":3840,"taking":3841,"##ungen":3842,"skin":3843,"aus":3844,"drugs":3845,"##posed":3846,"traff":3847,"##iles":3848,"suggesting":3849,"motor":3850,"dil":3851,"assumed":3852,"simulations":3853,"hz":3854,"kn":3855,"##ptions":3856,"ber":3857,"oxygen":3858,"”":3859,"relationships":3860,"ð":3861,"involve":3862,"##____":3863,"##loaded":3864,"##sup":3865,"##lim":3866,"##activ":3867,"##pan":3868,"##aking":3869,"smo":3870,"media":3871,"too":3872,"adult":3873,"##ned":3874,"##44":3875,"sense":3876,"31":3877,"operations":3878,"detailed":3879,"demand":3880,"proj":3881,"##side":3882,"##200":3883,"feedback":3884,"qual":3885,"assumption":3886,"zu":3887,"auf":3888,"ze":3889,"immune":3890,"fully":3891,"uniform":3892,"mathem":3893,"44":3894,"cla":3895,"##ki":3896,"establish":3897,"depends":3898,"classes":3899,"mrna":3900,"start":3901,"1.5":3902,"mol":3903,"##ibrium":3904,"aspects":3905,"embr":3906,"identi":3907,"variance":3908,"indicating":3909,"providing":3910,"##cor":3911,"?":3912,"fall":3913,"3.2":3914,"typically":3915,"##ories":3916,"double":3917,"simpl":3918,"substanti":3919,"°":3920,"etc":3921,"##icients":3922,"earlier":3923,"(8":3924,"considering":3925,"##car":3926,"##ump":3927,"tor":3928,"remov":3929,"temporal":3930,"aud":3931,"##itr":3932,"##era":3933,"proceed":3934,"##-0":3935,"analog":3936,"computation":3937,"hr":3938,"##omal":3939,"##gs":3940,"que":3941,"face":3942,"plat":3943,"advantage":3944,"items":3945,"joh":3946,"metric":3947,"business":3948,"##31":3949,"ri":3950,"##0.00":3951,"##epend":3952,"chap":3953,"underlying":3954,"resource":3955,"extended":3956,"alone":3957,"##olved":3958,"2.5":3959,"coefficients":3960,"##ica":3961,"induction":3962,"denote":3963,"cas":3964,"##3].":3965,"theoretical":3966,"solid":3967,"correlated":3968,"3-":3969,"incidence":3970,"##chron":3971,"integration":3972,"begin":3973,"strongly":3974,"fields":3975,"arr":3976,"##66":3977,"discuss":3978,"sufficient":3979,"##udes":3980,"##4]":3981,"pay":3982,"strains":3983,"simult":3984,"prevalence":3985,"substit":3986,"itself":3987,"return":3988,"computational":3989,"##words":3990,"coh":3991,"researc":3992,"behaviour":3993,"channels":3994,"mutations":3995,"programs":3996,"machine":3997,"##ighted":3998,"##free":3999,"hu":4000,"situation":4001,"dc":4002,"otherwise":4003,"##atal":4004,"pharmac":4005,"enhanced":4006,"manuf":4007,"##pd":4008,"facilit":4009,"disord":4010,"tur":4011,"emo":4012,"##aily":4013,"meet":4014,"(7":4015,"reson":4016,"##ends":4017,"##pective":4018,"kr":4019,"amino":4020,"susp":4021,"financ":4022,"55":4023,"bei":4024,"##omial":4025,"personal":4026,"resulted":4027,"##agg":4028,"##rolog":4029,"led":4030,"differential":4031,"placed":4032,"marg":4033,"##izations":4034,"simultaneous":4035,"transformation":4036,"frame":4037,"throughout":4038,"cu":4039,"rights":4040,"antibodies":4041,"liqu":4042,"enough":4043,"bias":4044,"gal":4045,"wes":4046,"possibility":4047,"price":4048,"hab":4049,"radiation":4050,"gel":4051,"gradi":4052,"##ache":4053,"implies":4054,"mixed":4055,"##bre":4056,"9.":4057,"numerical":4058,"##-8":4059,"##cn":4060,"substrate":4061,"0.2":4062,"##icht":4063,"##ished":4064,"invest":4065,"pix":4066,"matter":4067,"contribution":4068,"##gebr":4069,"extract":4070,"##ky":4071,"trig":4072,"statistically":4073,"##wa":4074,"##sian":4075,"##imm":4076,"##rh":4077,"##ll":4078,"proportion":4079,"causes":4080,"video":4081,"week":4082,"capture":4083,"insulin":4084,"latter":4085,"surgical":4086,"ba":4087,"\\":4088,"polymer":4089,"acet":4090,"fluid":4091,"prepared":4092,"healthy":4093,"construction":4094,"room":4095,"##inity":4096,"nuclear":4097,"adhe":4098,"grid":4099,"embry":4100,"##plant":4101,"phenomen":4102,"proposition":4103,"safety":4104,"hier":4105,"carcin":4106,"6,":4107,"ak":4108,"seems":4109,"##pm":4110,"agreement":4111,"##gence":4112,"##treated":4113,"tumors":4114,"motiv":4115,"##dm":4116,"##’’":4117,"occurred":4118,"accurate":4119,"competi":4120,"communic":4121,"daily":4122,"—":4123,"##def":4124,"mapping":4125,"remain":4126,"formed":4127,"##2+":4128,"ant":4129,"dele":4130,"cardiac":4131,"##%.":4132,"39":4133,"jan":4134,"divers":4135,"##ochond":4136,"95%":4137,"##entric":4138,"miss":4139,"fed":4140,"##bal":4141,"thermal":4142,"decom":4143,"cover":4144,"transf":4145,"manuscript":4146,"technical":4147,"pregn":4148,"window":4149,"significance":4150,"stem":4151,"adapt":4152,"empir":4153,"##ologic":4154,"##ounts":4155,"stimulation":4156,"##ateral":4157,"##rief":4158,"house":4159,"##bedd":4160,"receptors":4161,"##ipher":4162,"##7–":4163,"##oll":4164,"genome":4165,"particle":4166,"∼":4167,"decl":4168,"pairs":4169,"war":4170,"##iii":4171,"##sa":4172,"##mo":4173,"therapeu":4174,"uk":4175,"##-7":4176,"chromos":4177,"wal":4178,"spectra":4179,"sciences":4180,"traffic":4181,"##.-":4182,"perf":4183,"scientific":4184,"majority":4185,"0.6":4186,"prote":4187,"eine":4188,"##ani":4189,"##omas":4190,"ist":4191,"else":4192,"sr":4193,"##uth":4194,"##:10.":4195,"operator":4196,"storage":4197,"technologies":4198,"bat":4199,"forward":4200,"overl":4201,"##aling":4202,"##mann":4203,"oral":4204,"session":4205,"fav":4206,"ensure":4207,"employed":4208,"injection":4209,"##pts":4210,"equilibrium":4211,"phosphory":4212,"##ek":4213,"Γ":4214,"##urg":4215,"plot":4216,"##tely":4217,"##ylation":4218,"##ogeneous":4219,"extraction":4220,"quantitative":4221,"alter":4222,"##ontal":4223,"von":4224,"syndrome":4225,"summar":4226,"counter":4227,"explicit":4228,"##oved":4229,"dies":4230,"movement":4231,"sensitive":4232,"##ogenous":4233,"remaining":4234,"repeated":4235,"##aster":4236,"slightly":4237,"compet":4238,"circuit":4239,"integrated":4240,"enter":4241,"retrie":4242,"laser":4243,"##6]":4244,"apply":4245,"align":4246,"showing":4247,"median":4248,"##xy":4249,"intermedi":4250,"##sts":4251,"metast":4252,"##lab":4253,"allowed":4254,"differentiation":4255,"##wid":4256,"##oud":4257,"stri":4258,"##gt":4259,"skill":4260,"##4].":4261,"##53":4262,"differ":4263,"smooth":4264,"lic":4265,"recovery":4266,"gam":4267,"##gu":4268,"##oxid":4269,"government":4270,"extracted":4271,"##try":4272,"##ocard":4273,"united":4274,"##hydro":4275,"widely":4276,"delivery":4277,"lesions":4278,"suitable":4279,"sle":4280,"acids":4281,"date":4282,"renal":4283,"references":4284,"scat":4285,"##ras":4286,"Ω":4287,"##portun":4288,"old":4289,"removed":4290,"stre":4291,"remark":4292,"written":4293,"##icacy":4294,"##fa":4295,"##uly":4296,"brief":4297,"rn":4298,"virtual":4299,"##usted":4300,"mutation":4301,"keywords":4302,"stages":4303,"conj":4304,"vor":4305,"##(1)":4306,"##arent":4307,"collabor":4308,"‘‘":4309,"cc":4310,"adults":4311,"responsible":4312,"pathways":4313,"propag":4314,"∣":4315,"pas":4316,"chlor":4317,"##stream":4318,"summary":4319,"bul":4320,"platform":4321,"iden":4322,"mi":4323,"##net":4324,"query":4325,"toler":4326,"mitochond":4327,"manner":4328,"##2–":4329,"message":4330,"depending":4331,"claim":4332,"##head":4333,"disorders":4334,"libr":4335,"sod":4336,"idea":4337,"shift":4338,"fu":4339,"opportun":4340,"##iction":4341,"nonlinear":4342,"##oring":4343,"plus":4344,"array":4345,"rare":4346,"##otypes":4347,"##ilt":4348,"gran":4349,"fundam":4350,"##ova":4351,"##55":4352,"metal":4353,"),":4354,"completely":4355,"commerc":4356,"inser":4357,"closed":4358,"except":4359,"endot":4360,"##eding":4361,"contribute":4362,"5-":4363,"##width":4364,"regim":4365,"oste":4366,"mis":4367,"##ocal":4368,"quant":4369,"2.3":4370,"domains":4371,"parent":4372,"examination":4373,"takes":4374,"##iciently":4375,"benefits":4376,"magnitude":4377,"advanced":4378,"clusters":4379,"vascular":4380,"diameter":4381,"mentioned":4382,"assem":4383,"unknown":4384,"obvious":4385,"ln":4386,"ξ":4387,"〈":4388,"belong":4389,"##5]":4390,"3).":4391,"##plicated":4392,"##men":4393,"distingu":4394,"exercise":4395,"separate":4396,"##ectiveness":4397,"2010":4398,"tun":4399,"presents":4400,"liquid":4401,"##hood":4402,"##cohol":4403,"##----":4404,"nt":4405,"apoptosis":4406,"plane":4407,"apparent":4408,"1-":4409,"late":4410,"wat":4411,"##46":4412,"middle":4413,"copyr":4414,"ds":4415,"charge":4416,"job":4417,"actions":4418,"meaning":4419,"fal":4420,"mutant":4421,"screening":4422,"examine":4423,"create":4424,"european":4425,"##mg":4426,"simply":4427,"port":4428,"##doi":4429,"south":4430,"accel":4431,"##ão":4432,"file":4433,"mixture":4434,"##ban":4435,"comparing":4436,"financial":4437,":=":4438,"vacc":4439,"sept":4440,"##roid":4441,"configuration":4442,"reducing":4443,"embedd":4444,"incubated":4445,"exchange":4446,"##ser":4447,"bp":4448,"pal":4449,"fish":4450,"hol":4451,"##fp":4452,"##ategory":4453,"##edu":4454,"##4-":4455,"share":4456,"diagnostic":4457,"explained":4458,"propose":4459,"##sized":4460,"spectral":4461,"quite":4462,"recommend":4463,"subj":4464,"##esthe":4465,"wt":4466,"created":4467,"categories":4468,"##ustry":4469,"##ochemical":4470,"vectors":4471,"loop":4472,"anten":4473,"##ken":4474,"##ued":4475,"mental":4476,"ψ":4477,"io":4478,"##uff":4479,"keep":4480,"##hi":4481,"contained":4482,"curves":4483,"ν":4484,"confirm":4485,"46":4486,"mechanical":4487,"##inations":4488,"interview":4489,"explain":4490,"proc":4491,"construct":4492,"##meth":4493,"supply":4494,"##47":4495,"##.0":4496,"indust":4497,"proliferation":4498,"moment":4499,"abund":4500,"neighbor":4501,"gap":4502,"##section":4503,"##pha":4504,"2015":4505,"profession":4506,"500":4507,"##acing":4508,"##ares":4509,"##ked":4510,"cod":4511,"stro":4512,"1/":4513,"##istered":4514,"assist":4515,"##hs":4516,"##seud":4517,"respir":4518,"accom":4519,"##93":4520,"2014":4521,"##ara":4522,"ones":4523,"divided":4524,"##eter":4525,"answ":4526,"operating":4527,"approximation":4528,"occup":4529,"statistics":4530,"commonly":4531,"thickness":4532,"marked":4533,"investigation":4534,"formula":4535,"fluorescence":4536,"##6].":4537,"researchers":4538,"western":4539,"##ocr":4540,"benefit":4541,"aver":4542,"irr":4543,"bott":4544,"agr":4545,"iter":4546,"##uting":4547,"electronic":4548,"##ben":4549,"break":4550,"−1":4551,"ren":4552,"##olic":4553,"##sis":4554,"beam":4555,"##well":4556,"##7]":4557,"conference":4558,"ho":4559,"4.1":4560,"innov":4561,"thank":4562,"##ws":4563,"##ni":4564,"(5)":4565,"##ils":4566,"##agon":4567,"ways":4568,"industry":4569,"student":4570,"explan":4571,"##ford":4572,"constraint":4573,"47":4574,"jud":4575,"##att":4576,"aer":4577,"easy":4578,"##asts":4579,"none":4580,"emph":4581,"##88":4582,"height":4583,"##ners":4584,"2017":4585,"copyright":4586,"horiz":4587,"nl":4588,"biol":4589,"sustain":4590,"##osa":4591,"abnormal":4592,"starting":4593,"poli":4594,"##down":4595,"##utive":4596,"flux":4597,"##ril":4598,"amplitude":4599,"dt":4600,"expan":4601,"box":4602,"works":4603,"similarity":4604,"##ades":4605,"##bitr":4606,"markers":4607,"planning":4608,"bil":4609,"ont":4610,"##dis":4611,"##enge":4612,"##zer":4613,"##rim":4614,"independ":4615,"therapeutic":4616,"alcohol":4617,"seem":4618,"practical":4619,"distributions":4620,"##mediated":4621,"0.7":4622,"(10":4623,"older":4624,"##cepts":4625,"bit":4626,"_":4627,"##itrogen":4628,"assigned":4629,"db":4630,"deep":4631,"quantum":4632,"##zen":4633,"entr":4634,"∞":4635,"axis":4636,"42":4637,"variability":4638,"##cos":4639,"adaptive":4640,"ple":4641,"osc":4642,"polyn":4643,"##”,":4644,"cf":4645,"##5].":4646,"##6/":4647,"sed":4648,"reactions":4649,"##101":4650,"subset":4651,"station":4652,"frequently":4653,"say":4654,"kinase":4655,"north":4656,"interpretation":4657,"protection":4658,"identical":4659,"##comp":4660,"schedul":4661,"complement":4662,"harm":4663,"##pair":4664,"minimal":4665,"##vals":4666,"bacterial":4667,"##gebra":4668,"##49":4669,"append":4670,"##truc":4671,"specim":4672,"germany":4673,"##alysis":4674,"##ovascular":4675,"2008":4676,"compute":4677,"3)":4678,"reasons":4679,"##sub":4680,"##zing":4681,"why":4682,"##nm":4683,"efficacy":4684,"##uation":4685,"bio":4686,"dop":4687,"variations":4688,"reach":4689,"peripher":4690,"10,":4691,"##oids":4692,"reflect":4693,"fiber":4694,"quad":4695,"spread":4696,"##hl":4697,"##ening":4698,"##7].":4699,"stored":4700,"pure":4701,"##ocyte":4702,"gender":4703,"##monary":4704,"potentially":4705,"gi":4706,"deviation":4707,"2000":4708,"##artic":4709,"75":4710,"expansion":4711,"afric":4712,"scenario":4713,"minutes":4714,"diversity":4715,"##rehen":4716,"pseud":4717,"wang":4718,"cytok":4719,"execution":4720,"category":4721,"##omorph":4722,"##rich":4723,"exposed":4724,"ai":4725,"questionna":4726,"##take":4727,"treatments":4728,"##elines":4729,"clim":4730,"##ervation":4731,"ly":4732,"2013":4733,"43":4734,"obes":4735,"building":4736,"preparation":4737,"bacteria":4738,"lipid":4739,"matching":4740,"arbitr":4741,"interven":4742,"intra":4743,"cloud":4744,"##ided":4745,"##gi":4746,"65":4747,"spin":4748,"instruc":4749,"degradation":4750,"gradient":4751,"probably":4752,"##organ":4753,"depression":4754,"inver":4755,"organic":4756,"fuz":4757,"2009":4758,"secre":4759,"peptide":4760,"limitations":4761,"7,":4762,"##5),":4763,"##%),":4764,"rich":4765,"hierarch":4766,"##ev":4767,"bios":4768,"bey":4769,"identity":4770,"frequencies":4771,"quantif":4772,"inhibitor":4773,"##bc":4774,"3.3":4775,"prove":4776,"speech":4777,"##scale":4778,"diagr":4779,"##going":4780,"mamm":4781,"additionally":4782,"##4),":4783,"##function":4784,"##1:":4785,"focused":4786,"xi":4787,"##mat":4788,"expon":4789,"##atics":4790,"##1⁄4":4791,"ham":4792,"dual":4793,"##-10":4794,"dimensions":4795,"ub":4796,"##oster":4797,"196":4798,").":4799,"edges":4800,"sti":4801,"famil":4802,"##zation":4803,"##hn":4804,"adjust":4805,"##sities":4806,"kid":4807,"empirical":4808,"chen":4809,"##sively":4810,"york":4811,"##opro":4812,"dataset":4813,"##−1)":4814,"positions":4815,"##control":4816,"reliability":4817,"vehicle":4818,"decreases":4819,"ring":4820,"ord":4821,"recomb":4822,"##ibration":4823,"manif":4824,"300":4825,"effectiveness":4826,"holds":4827,"##band":4828,"discrete":4829,"consequently":4830,"lys":4831,"team":4832,"km":4833,"eight":4834,"##fact":4835,"fragment":4836,"metabolic":4837,"japan":4838,"attr":4839,"oscill":4840,"##fication":4841,"rm":4842,"viol":4843,"##inated":4844,"absorption":4845,"##ana":4846,"extrem":4847,"eigen":4848,"##etal":4849,"invas":4850,"coupling":4851,"layers":4852,"##acent":4853,"concepts":4854,"recr":4855,"logic":4856,"##nn":4857,"##mid":4858,"##ips":4859,"brow":4860,"##ano":4861,"ster":4862,"calculation":4863,"panel":4864,"grant":4865,"absol":4866,"barri":4867,"polynomial":4868,"##/10.":4869,"##@@":4870,"##aa":4871,"##flow":4872,"beh":4873,"electrical":4874,"##ris":4875,"##sd":4876,"corresponds":4877,"58":4878,"##ady":4879,"applying":4880,"54":4881,"beyond":4882,"##used":4883,"##dx":4884,"confidence":4885,"programming":4886,"yon":4887,"gaus":4888,"##idity":4889,"vit":4890,"activated":4891,"##cepti":4892,"##alian":4893,"##sia":4894,"##6),":4895,"physici":4896,"width":4897,"foundation":4898,"dependence":4899,"fundamental":4900,"##8]":4901,"highl":4902,"##(2)":4903,"feas":4904,"diffusion":4905,"compens":4906,"inflammatory":4907,"comprehen":4908,"##ihood":4909,"choose":4910,"synchron":4911,"module":4912,"ye":4913,"june":4914,"##ethyl":4915,"unc":4916,"##ressive":4917,"##icon":4918,"controller":4919,"infer":4920,"0.3":4921,"atm":4922,"##po":4923,"56":4924,"##ura":4925,"figures":4926,"##acr":4927,"server":4928,"complications":4929,"constructed":4930,"trade":4931,"ea":4932,"targets":4933,"##ception":4934,"lu":4935,"college":4936,"appe":4937,"0.9":4938,"suppose":4939,"abstract":4940,"game":4941,"fuzzy":4942,"horm":4943,"desired":4944,"##bt":4945,"##oscop":4946,"eye":4947,"vac":4948,"challenge":4949,"2012":4950,"blocks":4951,"uncertainty":4952,"physiological":4953,"contributions":4954,"staining":4955,"wer":4956,"birth":4957,"look":4958,"intermediate":4959,"think":4960,"##ses":4961,"nutri":4962,"##)]":4963,"methodology":4964,"sensors":4965,"biology":4966,"##201":4967,"profiles":4968,"mt":4969,"inside":4970,"##ophil":4971,"##ament":4972,"coron":4973,"4.2":4974,"drop":4975,"sound":4976,"sleep":4977,"calculate":4978,"##reless":4979,"##eg":4980,"oil":4981,"##velength":4982,"##ini":4983,"paras":4984,"##poses":4985,"onset":4986,"fab":4987,"##overed":4988,"pulse":4989,"nurs":4990,"observe":4991,"internet":4992,"immediately":4993,"humans":4994,"##.6":4995,"nc":4996,"8,":4997,"arm":4998,"vertical":4999,"##ured":5000,"##mer":5001,"pert":5002,"females":5003,"##8].":5004,"involving":5005,"##anch":5006,"randomly":5007,"elimin":5008,"metabolism":5009,"progression":5010,"##kin":5011,"##wr":5012,"##pati":5013,"calcium":5014,"aden":5015,"##43":5016,"residual":5017,"##ucle":5018,"outside":5019,"##57":5020,"income":5021,"packet":5022,"##care":5023,"þ":5024,"##bar":5025,"shared":5026,"10%":5027,"rf":5028,"sv":5029,"simulated":5030,"##otox":5031,"compr":5032,"manip":5033,"vo":5034,"##emi":5035,"kg":5036,"##elle":5037,"fusion":5038,"transmit":5039,"2.4":5040,"bandwidth":5041,"perm":5042,"lateral":5043,"##86":5044,"pic":5045,"commercial":5046,"##elihood":5047,"##iment":5048,"interact":5049,"glut":5050,"institution":5051,"adequ":5052,"inequ":5053,"##isition":5054,"cohort":5055,"##water":5056,"rd":5057,"rr":5058,"oh":5059,"mn":5060,"##fort":5061,"posterior":5062,"##yle":5063,"heav":5064,"throm":5065,"offer":5066,"binary":5067,"##rees":5068,"49":5069,"##avity":5070,"wireless":5071,"yields":5072,"induce":5073,"existence":5074,"shif":5075,"robot":5076,"actually":5077,"ll":5078,"##dep":5079,"locations":5080,"periods":5081,"##)−":5082,"ultras":5083,"##herent":5084,"comparable":5085,"maps":5086,"disorder":5087,"persist":5088,"##where":5089,"seas":5090,"accumulation":5091,"kern":5092,"##otrop":5093,"linked":5094,"onto":5095,"transplant":5096,"environments":5097,"stream":5098,"##ayer":5099,"namely":5100,"(6)":5101,"probe":5102,"standards":5103,"fill":5104,"##inger":5105,"##pcr":5106,"dim":5107,"bank":5108,"classical":5109,"kine":5110,"##vol":5111,"pig":5112,"traject":5113,"`":5114,"intervals":5115,"vess":5116,"inclusion":5117,"minor":5118,"cycles":5119,"poll":5120,"chapter":5121,"##ativ":5122,"##requ":5123,"angi":5124,"##5–":5125,"moderate":5126,"mer":5127,"hyperten":5128,"july":5129,"tel":5130,"##bial":5131,"##eling":5132,"leuk":5133,"fault":5134,"orientation":5135,"##times":5136,"principle":5137,"publication":5138,"##rosis":5139,"##crib":5140,"##tober":5141,"prefer":5142,"migration":5143,"trend":5144,"##73":5145,"guidelines":5146,"name":5147,"cn":5148,"coding":5149,"separation":5150,"##0(":5151,"seven":5152,"capital":5153,"##ella":5154,"sizes":5155,"urban":5156,"gold":5157,"systematic":5158,"stabil":5159,"##apl":5160,"elevated":5161,"##stein":5162,"antic":5163,"recall":5164,"males":5165,"clustering":5166,"connection":5167,"thought":5168,"##cf":5169,"sulf":5170,"##tile":5171,"##arant":5172,"suscepti":5173,"reduces":5174,"blue":5175,"determination":5176,"stroke":5177,"tm":5178,"##ama":5179,"progress":5180,"##elves":5181,"supporting":5182,"sodium":5183,"(0":5184,"involves":5185,"pulmonary":5186,"acquisition":5187,"explo":5188,"balance":5189,"agric":5190,"solve":5191,"country":5192,"##ellig":5193,"round":5194,"representative":5195,"##link":5196,"thin":5197,"bind":5198,"gm":5199,"prevention":5200,"reserved":5201,"0.05":5202,"radio":5203,"##estinal":5204,"firm":5205,"progn":5206,"decisions":5207,"appendix":5208,"##kele":5209,"artery":5210,"perspective":5211,"challenges":5212,"incom":5213,"implications":5214,"neutral":5215,"##data":5216,"removal":5217,"split":5218,"##activity":5219,"41":5220,"muc":5221,"11.":5222,"describes":5223,"subsequently":5224,"private":5225,"##gc":5226,"##genic":5227,"2011":5228,"sig":5229,"analyze":5230,"##2:":5231,"availability":5232,"##rt":5233,"march":5234,"modes":5235,"reproduc":5236,"charg":5237,"cultures":5238,"reverse":5239,"ded":5240,"inhibitors":5241,"np":5242,"dest":5243,"firms":5244,"nf":5245,"##)|":5246,"##ives":5247,"2007":5248,"spring":5249,"##arrow":5250,"residues":5251,"##uding":5252,"##ourn":5253,"##ifier":5254,"compl":5255,"##omatic":5256,"shor":5257,"##cast":5258,"inflammation":5259,"##ads":5260,"##occ":5261,"austr":5262,"[1]":5263,"effort":5264,"##tenance":5265,"initially":5266,"phosphorylation":5267,"##-9":5268,"ratios":5269,"peripheral":5270,"expand":5271,"cruc":5272,"pf":5273,"##ham":5274,"59":5275,"##bral":5276,"division":5277,"wavelength":5278,"##%).":5279,"##iral":5280,"relax":5281,"uptake":5282,"cardiovascular":5283,"nach":5284,"referred":5285,"candidate":5286,"convergence":5287,"thor":5288,"denotes":5289,"stop":5290,"##oration":5291,"rise":5292,"##positive":5293,"viral":5294,"stimuli":5295,"your":5296,"##nc":5297,"##acl":5298,"algebra":5299,"coverage":5300,"##63":5301,"iron":5302,"mother":5303,"pit":5304,"hi":5305,"carry":5306,"gast":5307,"##isons":5308,"57":5309,"custom":5310,"##(2":5311,"ideal":5312,"prosp":5313,"complexes":5314,"false":5315,"square":5316,"##dt":5317,"##bil":5318,"##neg":5319,"protocols":5320,"indi":5321,"tt":5322,"2016":5323,"matric":5324,"catal":5325,"hydrogen":5326,"absolute":5327,"cortex":5328,"##bert":5329,"lm":5330,"links":5331,"##vis":5332,"##},":5333,"##pressed":5334,"##uous":5335,"gaussian":5336,"##42":5337,"##irus":5338,"los":5339,"##obl":5340,"##graph":5341,"##.201":5342,"completed":5343,"##ón":5344,"rab":5345,"classified":5346,"surfaces":5347,"invari":5348,"als":5349,"##omics":5350,"##ifi":5351,"infections":5352,"qualit":5353,"##ping":5354,"teac":5355,"##87":5356,"gh":5357,"weights":5358,"introduce":5359,"normalized":5360,"cred":5361,"guarant":5362,"meta":5363,"simultaneously":5364,"maintenance":5365,"static":5366,"ven":5367,"##ife":5368,"ram":5369,"roles":5370,"##apped":5371,"##theless":5372,"measuring":5373,"tag":5374,"happ":5375,"january":5376,"##tives":5377,"intellig":5378,"##erson":5379,"receive":5380,"ot":5381,"##ister":5382,"adoles":5383,"dav":5384,"##uck":5385,"adverse":5386,"tit":5387,"hs":5388,"behavioral":5389,"aa":5390,"arri":5391,"impair":5392,"53":5393,"maintained":5394,"ads":5395,"infected":5396,"tl":5397,"nevertheless":5398,"matrices":5399,"##lands":5400,"##rd":5401,"##ifications":5402,"calculations":5403,"living":5404,"##gal":5405,"disch":5406,"stra":5407,"olig":5408,"##kt":5409,"##ria":5410,"growing":5411,"bay":5412,"150":5413,"changed":5414,"grade":5415,"pool":5416,"annual":5417,"regulatory":5418,"effectively":5419,"promoter":5420,"64":5421,"malign":5422,"practices":5423,"4-":5424,"arti":5425,"stock":5426,"utility":5427,"##itz":5428,"successfully":5429,"household":5430,"rig":5431,"reached":5432,"72":5433,"interventions":5434,"@":5435,"mur":5436,"semantic":5437,"fri":5438,"panc":5439,"##resh":5440,"disp":5441,"april":5442,"assays":5443,"centre":5444,"repair":5445,"##=0":5446,"regional":5447,"inner":5448,"partition":5449,"rapidly":5450,"interference":5451,"likelihood":5452,"proxim":5453,"primarily":5454,"##itively":5455,"##cles":5456,"correspondence":5457,"hardware":5458,"’":5459,"randomized":5460,"##process":5461,"##ariate":5462,"running":5463,"interpre":5464,"##vier":5465,"##lip":5466,"nerve":5467,"changing":5468,"##field":5469,"select":5470,"sexual":5471,"tracking":5472,"bottom":5473,"##lig":5474,"##ournals":5475,"instrument":5476,"##onomic":5477,"ov":5478,"kit":5479,"lowest":5480,"committe":5481,"composed":5482,"##ato":5483,"receiving":5484,"##olester":5485,"##oly":5486,"sie":5487,"##.7":5488,"ie":5489,"##ellow":5490,"##ept":5491,"moving":5492,"zone":5493,"parents":5494,"##associ":5495,"ventric":5496,"phases":5497,"families":5498,"##np":5499,"uv":5500,"insp":5501,"assumptions":5502,"coronary":5503,"reliable":5504,"##.8":5505,"asympt":5506,"##ees":5507,"95":5508,"##ulus":5509,"amounts":5510,"conflict":5511,"macroph":5512,"leaf":5513,"##aker":5514,"translation":5515,"##uits":5516,"big":5517,"forest":5518,"ltd":5519,"ing":5520,"dominant":5521,"marker":5522,"city":5523,"##fi":5524,"largest":5525,"##mi":5526,"zhang":5527,"##test":5528,"alk":5529,"je":5530,"temperatures":5531,"extensive":5532,"tail":5533,"##value":5534,"board":5535,"##bd":5536,"exhibit":5537,"manufacture":5538,"intake":5539,"diver":5540,"kidney":5541,"presentation":5542,"varying":5543,"excluded":5544,"perceived":5545,"front":5546,"shall":5547,"##hc":5548,"ty":5549,"##etic":5550,"ia":5551,"covari":5552,"##aria":5553,"enzymes":5554,"workers":5555,"comparisons":5556,"localization":5557,"##alled":5558,"##05":5559,"library":5560,"skills":5561,"2:":5562,"join":5563,"pregnancy":5564,"specificity":5565,"closely":5566,"phil":5567,"disturb":5568,"##tial":5569,"beginning":5570,"##yt":5571,"lam":5572,"##atical":5573,"exceed":5574,"amb":5575,"##69":5576,"ble":5577,"[1].":5578,"write":5579,"respiratory":5580,"##cat":5581,"nanop":5582,"surround":5583,"remained":5584,"##plate":5585,"anterior":5586,"rib":5587,"##new":5588,"reading":5589,"recip":5590,"##ster":5591,"conclude":5592,"az":5593,"separated":5594,"4).":5595,"contents":5596,"conv":5597,"##fered":5598,"##vem":5599,"biot":5600,"##mal":5601,"conversion":5602,"polymorph":5603,"wil":5604,"limits":5605,"trees":5606,"(7)":5607,"conve":5608,"intracellular":5609,"explore":5610,"circum":5611,"electric":5612,".1":5613,"sun":5614,"##wide":5615,"behaviors":5616,"##can":5617,"argument":5618,"##exp":5619,"##forms":5620,"pv":5621,"requirement":5622,"fair":5623,"##}.":5624,"severity":5625,"nearly":5626,"termin":5627,"anat":5628,"400":5629,"bed":5630,"lie":5631,"request":5632,"##ped":5633,"degrees":5634,"##ko":5635,"consequence":5636,"correlations":5637,"nic":5638,"##estic":5639,"##otide":5640,"##thal":5641,"involvement":5642,"proceedings":5643,"allowing":5644,"52":5645,"##coun":5646,"[2]":5647,"Φ":5648,"##–2":5649,"##–3":5650,"schemes":5651,"thems":5652,"tom":5653,"##ypt":5654,"##iotic":5655,"ka":5656,"##elt":5657,"pancre":5658,"##amide":5659,"##itory":5660,"purch":5661,"##ensus":5662,"psychi":5663,"##lich":5664,"fis":5665,"thereby":5666,"partially":5667,"##ori":5668,"operators":5669,"01":5670,"inputs":5671,"sector":5672,"##dp":5673,"representing":5674,"themselves":5675,"industrial":5676,"coupled":5677,"segments":5678,"antigen":5679,"staff":5680,"analytical":5681,"iso":5682,"##–5":5683,"##89":5684,"##ients":5685,"maximal":5686,"rough":5687,"##41":5688,"pk":5689,"scales":5690,"policies":5691,"questionnaire":5692,"##ida":5693,"jus":5694,"bounded":5695,"rotation":5696,"##iffiff":5697,"quick":5698,"purposes":5699,"endothelial":5700,"stimulus":5701,"py":5702,"coli":5703,"selective":5704,"9,":5705,"##ogeneity":5706,"##axis":5707,"χ":5708,"substantial":5709,"##62":5710,"extra":5711,"gp":5712,"--":5713,"august":5714,"κ":5715,"precision":5716,"##class":5717,"##rose":5718,"efforts":5719,"decomposition":5720,"50%":5721,"carcinoma":5722,"specified":5723,"##anted":5724,"##regulated":5725,"indirect":5726,"chemistry":5727,"adding":5728,"advantages":5729,"##ef":5730,"adjusted":5731,"supplementary":5732,"##ng":5733,"attributes":5734,"determining":5735,"doses":5736,"criterion":5737,"3.5":5738,"##clos":5739,"mitochondrial":5740,"##aptic":5741,"bis":5742,"lum":5743,"nmr":5744,"molecule":5745,"determin":5746,"september":5747,"##oxide":5748,"sich":5749,"adjacent":5750,"art":5751,"deal":5752,"introduc":5753,"san":5754,"october":5755,"##aving":5756,"political":5757,"[3]":5758,"distinguish":5759,"john":5760,"[20":5761,"entry":5762,"ions":5763,"member":5764,"arbitrary":5765,"##ocl":5766,"routing":5767,"rational":5768,"plays":5769,"experienced":5770,"mathematical":5771,"straight":5772,"habit":5773,"addressed":5774,"##6-":5775,"neurolog":5776,"##ergic":5777,"proved":5778,"possibly":5779,"##ifying":5780,"exhibited":5781,"gest":5782,"lee":5783,"crucial":5784,"vic":5785,"hp":5786,"##vs":5787,"strict":5788,"51":5789,"ey":5790,"hc":5791,"##ush":5792,"situations":5793,"##rocy":5794,"match":5795,"film":5796,"##iring":5797,"##79":5798,"correction":5799,"illustrated":5800,"hypertension":5801,"independently":5802,"##mp":5803,"anxi":5804,"recommended":5805,"2007;":5806,"restricted":5807,"frequent":5808,"attempt":5809,"vertex":5810,"superior":5811,"parad":5812,"##84":5813,"1000":5814,"validation":5815,"myocard":5816,"[4]":5817,"##ji":5818,"##ado":5819,"microscopy":5820,"dx":5821,"Σ":5822,"-0.":5823,"●":5824,"perturb":5825,"shap":5826,"encoding":5827,"scenarios":5828,"graphs":5829,"embedded":5830,"trust":5831,"##neum":5832,"##.1)":5833,"##kl":5834,"##sibility":5835,"occurrence":5836,"reconstruction":5837,"##ather":5838,"resonance":5839,"geometry":5840,"##fol":5841,"goals":5842,"2006;":5843,"appeared":5844,"##sl":5845,"adaptation":5846,"messages":5847,"chromat":5848,"committee":5849,"suppl":5850,"assuming":5851,"modulation":5852,"##hand":5853,"december":5854,"phenotype":5855,"dark":5856,"##my":5857,"rein":5858,"camera":5859,"glass":5860,"##.:":5861,"forces":5862,"camp":5863,"poss":5864,"2008;":5865,"werden":5866,"neuros":5867,"disrup":5868,"asked":5869,"##oral":5870,"company":5871,"cham":5872,"pages":5873,"##rog":5874,"interests":5875,"numerous":5876,"settings":5877,"##–1":5878,"pip":5879,"##kins":5880,"bud":5881,"##ding":5882,"phyl":5883,"##phase":5884,"update":5885,"nitrogen":5886,"aspect":5887,"symbol":5888,"##zi":5889,"##which":5890,"2005;":5891,"interestingly":5892,"fresh":5893,"6=":5894,"flo":5895,"built":5896,"120":5897,"##”.":5898,"thre":5899,"item":5900,"modern":5901,"rating":5902,"formulation":5903,"communities":5904,"systemic":5905,"onc":5906,"annot":5907,"##cut":5908,"subgroup":5909,"##ectives":5910,"prem":5911,"##hd":5912,"##olesterol":5913,"traum":5914,"ij":5915,"##zo":5916,"capable":5917,"##awa":5918,"5%":5919,"subun":5920,"##nr":5921,"pedi":5922,"##space":5923,")(":5924,"arth":5925,"predom":5926,"leaves":5927,"2009;":5928,"##lect":5929,"##actic":5930,"radius":5931,"##obic":5932,"atmosp":5933,"records":5934,"##regulation":5935,"allocation":5936,"3.4":5937,"paths":5938,"largely":5939,"microbi":5940,"basal":5941,"compan":5942,"(197":5943,"nas":5944,"modification":5945,"incubation":5946,"farm":5947,"nr":5948,"fm":5949,"exactly":5950,"corpor":5951,"##phosph":5952,"[5]":5953,"atp":5954,"pb":5955,"##associated":5956,"generalized":5957,"fung":5958,"ischem":5959,"0)":5960,"##haps":5961,"##anged":5962,"excell":5963,"ju":5964,"dry":5965,"##arse":5966,"acquired":5967,"sequencing":5968,"##inese":5969,"99":5970,"academic":5971,"##key":5972,"veget":5973,"##wor":5974,"auto":5975,"consideration":5976,"specimens":5977,"##idine":5978,"##taining":5979,"switching":5980,"##8%":5981,"trace":5982,"displayed":5983,"epithelial":5984,"##ulator":5985,"##negative":5986,"gastro":5987,"sir":5988,"nav":5989,"##illary":5990,"nanopartic":5991,"vul":5992,"tables":5993,"projects":5994,"papers":5995,"2004;":5996,"◦":5997,"varied":5998,"vertices":5999,"##ico":6000,"pg":6001,"climate":6002,"##pass":6003,"asymmet":6004,"##log":6005,"toxicity":6006,"fluct":6007,"steady":6008,"##http":6009,"alpha":6010,"antenna":6011,"triang":6012,"notice":6013,"##0),":6014,"##ür":6015,"pac":6016,"improving":6017,"adopted":6018,"##ancing":6019,"solving":6020,"vision":6021,"fibro":6022,"##entral":6023,"oa":6024,"smoking":6025,"ld":6026,"##tz":6027,"perception":6028,"##conn":6029,"conduct":6030,"tal":6031,"said":6032,"fibr":6033,"toxic":6034,"labeled":6035,"##arities":6036,"receiver":6037,"##ometer":6038,"##char":6039,"eg":6040,"mmol":6041,"variants":6042,"instances":6043,"##enn":6044,"##bruary":6045,"diagram":6046,"[6]":6047,"##yroid":6048,"rever":6049,"##odynam":6050,"mp":6051,"tele":6052,"oppos":6053,"101":6054,"nerv":6055,"attit":6056,"ff":6057,"oxidative":6058,"inverse":6059,"principal":6060,"row":6061,"integral":6062,"##6%":6063,"equip":6064,"##tp":6065,"##tility":6066,"stoch":6067,"##phal":6068,"washed":6069,"kl":6070,"trends":6071,"##ultural":6072,"pbs":6073,"##7%":6074,"##iples":6075,"cv":6076,"quer":6077,"##urrent":6078,"##aj":6079,"denoted":6080,"novem":6081,"##itors":6082,"serious":6083,"faster":6084,"quadr":6085,"##ttps":6086,"lc":6087,"cultured":6088,"ros":6089,"methyl":6090,"consequences":6091,"horizontal":6092,"##erated":6093,"##tructure":6094,"codes":6095,"come":6096,"##ged":6097,"statement":6098,"ves":6099,"decreasing":6100,"ech":6101,"##iley":6102,"shar":6103,"tro":6104,"epidemi":6105,"##uate":6106,"precip":6107,"kernel":6108,"mostly":6109,"genomic":6110,"##-1,":6111,"##hell":6112,"spont":6113,"stated":6114,"administered":6115,"deploy":6116,"lar":6117,"##61":6118,"##box":6119,"##ux":6120,"identifying":6121,"##but":6122,"chinese":6123,"comprehensive":6124,"##insic":6125,"propagation":6126,"chemotherapy":6127,"kim":6128,"2010;":6129,"beta":6130,"accoun":6131,"considerable":6132,"mv":6133,"compact":6134,"ko":6135,"##sim":6136,"##)2":6137,"##)/":6138,"##fully":6139,"consisting":6140,"isolation":6141,"sometimes":6142,"crystal":6143,"2.0":6144,"november":6145,"##asi":6146,"##ho":6147,"phenomenon":6148,"##urally":6149,"é":6150,"##itt":6151,"approved":6152,"##mean":6153,"fabric":6154,"##ogram":6155,"answer":6156,"perhaps":6157,"scattering":6158,"narrow":6159,"alb":6160,"##uv":6161,"2(":6162,"participation":6163,"transient":6164,"opin":6165,"tube":6166,"##atus":6167,"tc":6168,"ball":6169,"english":6170,"4.3":6171,"nov":6172,"mild":6173,"##tration":6174,"psychological":6175,"ped":6176,"##sin":6177,"2003;":6178,"##acet":6179,"predictive":6180,"want":6181,"client":6182,"chromosome":6183,"neighb":6184,"Δ":6185,"2006":6186,"hemat":6187,"hepat":6188,"##force":6189,"##oto":6190,"grown":6191,"(8)":6192,"purified":6193,"ges":6194,"retur":6195,"2007).":6196,"isolates":6197,"[7]":6198,"##usive":6199,"##dc":6200,"##inite":6201,"**":6202,"morphology":6203,"pyr":6204,"son":6205,"##−2":6206,"##83":6207,"ls":6208,"multiv":6209,"neither":6210,"##tition":6211,"##7),":6212,"validity":6213,"mos":6214,"2006).":6215,"switch":6216,"##bound":6217,"underst":6218,"org":6219,"attributed":6220,"##ulture":6221,"believe":6222,"ranging":6223,"mediated":6224,"associations":6225,"tb":6226,"native":6227,"##tid":6228,"road":6229,"##5-":6230,"obesity":6231,"##kr":6232,"##/-":6233,"depic":6234,"##ema":6235,"##work":6236,"popular":6237,"sor":6238,"gate":6239,"cool":6240,"promote":6241,"scan":6242,"##8),":6243,"##=0.":6244,"multic":6245,"einer":6246,"sensing":6247,"million":6248,"blot":6249,"##.1.":6250,"implant":6251,"missing":6252,"lesion":6253,"nur":6254,"conjug":6255,"surpr":6256,"away":6257,"##urance":6258,"12,":6259,"hypothe":6260,"##ref":6261,"mind":6262,"##lie":6263,"satisfy":6264,"pixel":6265,"concerns":6266,"durch":6267,"encour":6268,"##tures":6269,"2008).":6270,"##ischen":6271,"⊗":6272,"##apse":6273,"experiences":6274,"concerning":6275,"discovery":6276,"##sec":6277,"reasonable":6278,"twice":6279,"calif":6280,"hot":6281,"ice":6282,"supports":6283,"respective":6284,"##burg":6285,"pel":6286,"##54":6287,"##ui":6288,"##ecting":6289,"2005).":6290,"histor":6291,"defects":6292,"principles":6293,"∧":6294,"rep":6295,"diagnosed":6296,"overe":6297,"string":6298,"explanation":6299,"melan":6300,"ht":6301,"cum":6302,"tolerance":6303,"deb":6304,"tnf":6305,"##idal":6306,"##aci":6307,"serve":6308,"articles":6309,"visible":6310,"##inv":6311,"##oxy":6312,"##hm":6313,"notion":6314,"##–4":6315,"##ened":6316,"semi":6317,"peaks":6318,"anxiety":6319,"centrif":6320,"ign":6321,"##imer":6322,"usage":6323,".2":6324,"mobility":6325,"coordinates":6326,"uns":6327,"extend":6328,"reviewed":6329,"directions":6330,"cb":6331,"dip":6332,"physics":6333,"mutants":6334,"pneum":6335,"educational":6336,"wood":6337,"performing":6338,"esc":6339,"##obacter":6340,"##ille":6341,"##oded":6342,"extremely":6343,"topology":6344,"membranes":6345,"##terminal":6346,"former":6347,"lett":6348,"stochastic":6349,"##range":6350,"##ita":6351,"20.":6352,"documents":6353,"affects":6354,"tu":6355,"##/0":6356,"mart":6357,"##hern":6358,"uc":6359,"bands":6360,"infras":6361,"spontaneous":6362,"emphas":6363,"endogenous":6364,"##72":6365,"concern":6366,"facilitate":6367,"dysfunction":6368,"mb":6369,"expressions":6370,"(9)":6371,"teaching":6372,"recognized":6373,"##cribed":6374,"[8]":6375,"##onia":6376,"replic":6377,"brown":6378,"adip":6379,"va":6380,"1−":6381,"radical":6382,"##wave":6383,"##ectivity":6384,"loading":6385,"##92":6386,"specification":6387,"transferred":6388,"canada":6389,"ethanol":6390,"developmental":6391,"##ging":6392,"scheduling":6393,"irradi":6394,"2011;":6395,"Λ":6396,"##rer":6397,"thromb":6398,"##what":6399,"nom":6400,"liu":6401,"compression":6402,"maternal":6403,"sharing":6404,"tan":6405,"neuronal":6406,"synthetic":6407,"∩":6408,"##ungs":6409,"mri":6410,"2009).":6411,"2005":6412,"∀":6413,"##tw":6414,"##oks":6415,"##ously":6416,"mim":6417,"option":6418,"overex":6419,"weighted":6420,"branch":6421,"##ei":6422,"2002;":6423,"spectroscop":6424,"peer":6425,"fp":6426,"##tc":6427,"ligand":6428,"sand":6429,"inequality":6430,"ef":6431,"##ski":6432,"symmetric":6433,"2004).":6434,"timing":6435,"replication":6436,"enable":6437,"nucleus":6438,"##ortic":6439,"##abs":6440,"##ien":6441,"##ontin":6442,"adequate":6443,"##9),":6444,"potenti":6445,"rc":6446,"precise":6447,"atoms":6448,"tract":6449,"##ção":6450,"##treat":6451,"influenced":6452,"##ystems":6453,"objectives":6454,"flat":6455,"##pty":6456,"suppress":6457,"cholesterol":6458,"##binding":6459,"sar":6460,"##bridge":6461,"fatty":6462,"healthcare":6463,"proportional":6464,"decay":6465,"favor":6466,"postoperative":6467,"4)":6468,"necessarily":6469,"##(0)":6470,"##journal":6471,"depos":6472,"emotional":6473,"bor":6474,"underw":6475,"cataly":6476,"##________":6477,"##rin":6478,"canc":6479,"##ifer":6480,"##atitis":6481,"signs":6482,"piec":6483,"combining":6484,"aged":6485,"prelim":6486,"automatic":6487,"imag":6488,"live":6489,"wur":6490,"##,1":6491,"portion":6492,"dro":6493,"zur":6494,"para":6495,"##+1)":6496,"february":6497,"##’,":6498,"targeted":6499,"hat":6500,"heavy":6501,"overview":6502,"[2].":6503,"##ordance":6504,"##derived":6505,"##elled":6506,"##iding":6507,"##56":6508,"perfect":6509,"##fc":6510,"listed":6511,"dl":6512,"##heses":6513,"inhibited":6514,"ana":6515,"hipp":6516,"##idge":6517,"##bb":6518,"##81":6519,"##analysis":6520,"electroph":6521,"funding":6522,"##forward":6523,"##ror":6524,"altered":6525,"qualitative":6526,"generating":6527,"##iance":6528,"##dd":6529,"assembly":6530,"##part":6531,"mesh":6532,"##alia":6533,"##cessive":6534,"pil":6535,"vas":6536,"enab":6537,"preliminary":6538,"bin":6539,"appearance":6540,"plastic":6541,"##nel":6542,"competition":6543,"investment":6544,"##udinal":6545,"dy":6546,"cytoplas":6547,"infants":6548,"satisfies":6549,"ban":6550,"route":6551,"phosphate":6552,"pn":6553,"languages":6554,"diverse":6555,"2010).":6556,"nicht":6557,"https":6558,"##ya":6559,"cortical":6560,"##isp":6561,"secretion":6562,"1;":6563,"##ornia":6564,"feasible":6565,"excess":6566,"understood":6567,"2003).":6568,"ck":6569,"lattice":6570,"fine":6571,"≡":6572,"##ava":6573,"underwent":6574,"##ester":6575,"[9]":6576,"##jection":6577,"##82":6578,"##ondon":6579,"communications":6580,"##aine":6581,"possess":6582,"anesthe":6583,"##tri":6584,"##iger":6585,"enhancement":6586,"turb":6587,"⊆":6588,"calibration":6589,"##71":6590,"detector":6591,"crystall":6592,"##agonal":6593,"book":6594,"oct":6595,"##.2)":6596,"remove":6597,"cond":6598,"11,":6599,"minimize":6600,"##gly":6601,"participant":6602,"nod":6603,"nh":6604,"##bn":6605,"retrieval":6606,"peptides":6607,"reactive":6608,"processed":6609,"contract":6610,"mhz":6611,"options":6612,"combinations":6613,"antagon":6614,"sea":6615,"failed":6616,"approximate":6617,"centers":6618,"sperm":6619,"̄":6620,"bench":6621,"composite":6622,"2001;":6623,"spinal":6624,"prostate":6625,"##−1,":6626,"tion":6627,"inhibitory":6628,"disper":6629,"distances":6630,"##ritis":6631,"integer":6632,"travel":6633,"respondents":6634,"ger":6635,"extracellular":6636,"[0,":6637,"obst":6638,"##tained":6639,"##wards":6640,"##unk":6641,"##versely":6642,"∪":6643,"evolutionary":6644,"##fall":6645,"cro":6646,"pu":6647,"oxidation":6648,"##amic":6649,"symmetry":6650,"shock":6651,"##inflamm":6652,"##sr":6653,"remote":6654,"valu":6655,"cultural":6656,"elect":6657,"ultim":6658,"revised":6659,"##lets":6660,"##ards":6661,"##ophag":6662,"cold":6663,"packets":6664,"electrode":6665,"india":6666,"longit":6667,"superv":6668,"briefly":6669,"consent":6670,"##outh":6671,"reag":6672,"hous":6673,"outer":6674,"##ensive":6675,"##ochemistry":6676,"lost":6677,"oxide":6678,"terminal":6679,"placebo":6680,"à":6681,"##reme":6682,"clar":6683,"##tem":6684,"##dri":6685,"vitamin":6686,"##tl":6687,"##eck":6688,"2000;":6689,"195":6690,"##ectomy":6691,"domin":6692,"artificial":6693,"exception":6694,"separately":6695,"fluor":6696,"west":6697,"##ocamp":6698,"2002).":6699,"##lectric":6700,"centrifug":6701,"controlling":6702,"replaced":6703,"promising":6704,"##oglob":6705,"2004":6706,"produces":6707,"conceptual":6708,"##gd":6709,"##ike":6710,"(10)":6711,"-1":6712,"##ulty":6713,"learn":6714,"1),":6715,"plos":6716,"##fit":6717,"##path":6718,"##osin":6719,"##ellar":6720,"topic":6721,"excellent":6722,"gc":6723,"companies":6724,"quantity":6725,"##02":6726,"##hyth":6727,"became":6728,"63":6729,"ih":6730,"##91":6731,"earth":6732,"risks":6733,"occurring":6734,"satisfaction":6735,"plates":6736,"##oked":6737,"##9%":6738,"california":6739,"##isa":6740,"institutional":6741,"directed":6742,"abundance":6743,"utilized":6744,"##ensor":6745,"rhe":6746,"##(3)":6747,"license":6748,"ib":6749,"##amb":6750,"##gers":6751,"fragments":6752,"contributed":6753,"flows":6754,"predictions":6755,"cerebral":6756,"react":6757,"epis":6758,"prices":6759,"##etric":6760,"recruit":6761,"2012;":6762,"reconstruc":6763,"restriction":6764,"##mc":6765,"(0,":6766,"sf":6767,"spaces":6768,"dp":6769,"format":6770,"capability":6771,"instructions":6772,"segmentation":6773,"started":6774,"slope":6775,"##top":6776,"volum":6777,"pixels":6778,"lact":6779,"evol":6780,"[3].":6781,"ei":6782,"##eled":6783,"plots":6784,"evaluating":6785,"smart":6786,"##uristic":6787,"250":6788,"equipment":6789,"##.[":6790,"innovation":6791,"hd":6792,"france":6793,"null":6794,"frames":6795,"iteration":6796,"arc":6797,"##oul":6798,"15,":6799,"1%":6800,"##oney":6801,"##wer":6802,"##etry":6803,"myel":6804,"haem":6805,"consec":6806,"df":6807,"ny":6808,"adhesion":6809,"##ahl":6810,"##ience":6811,"injected":6812,"ki":6813,"analysed":6814,"projection":6815,"professional":6816,"##vered":6817,"views":6818,"repeat":6819,"##nes":6820,"indices":6821,"##akes":6822,"derivatives":6823,"perme":6824,"##was":6825,"##dered":6826,"##aven":6827,"safe":6828,"permission":6829,"partners":6830,"bulk":6831,"encoun":6832,"##oplas":6833,"##step":6834,"##izer":6835,"alignment":6836,"ja":6837,"##gfr":6838,"affinity":6839,"##és":6840,"informed":6841,"mich":6842,"##ught":6843,"induces":6844,"elastic":6845,"unlike":6846,"##ires":6847,"##porter":6848,"distor":6849,"mand":6850,"##vance":6851,"##**":6852,"essentially":6853,"3:":6854,"convex":6855,"Þ":6856,"##cons":6857,"coordinate":6858,"representations":6859,"moun":6860,"utilization":6861,"guide":6862,"scaling":6863,"preced":6864,"regen":6865,"ethn":6866,"dietary":6867,"dram":6868,"recommendations":6869,"##han":6870,"opposite":6871,"hop":6872,"movements":6873,"≈":6874,"##6–":6875,"##ogenetic":6876,"⊂":6877,"##sitive":6878,"continue":6879,"prospective":6880,"accompan":6881,"waste":6882,"##yer":6883,"auch":6884,"85":6885,"dog":6886,"continued":6887,"him":6888,"##bon":6889,"kept":6890,"##anned":6891,"prolong":6892,"morphological":6893,"foot":6894,"2011).":6895,"illness":6896,"rb":6897,"collagen":6898,"evident":6899,".5":6900,"hf":6901,"igg":6902,"myocardial":6903,"extracts":6904,"refr":6905,"automatically":6906,"washing":6907,"raw":6908,"nine":6909,"doub":6910,"solar":6911,"hall":6912,"egg":6913,"losses":6914,"##plete":6915,"editor":6916,"bc":6917,"equally":6918,"copy":6919,"driven":6920,"consensus":6921,"##appro":6922,"[10]":6923,"setup":6924,"##keletal":6925,"##pre":6926,"lv":6927,"knock":6928,"decline":6929,"##assi":6930,"clock":6931,"ifn":6932,"predominant":6933,"span":6934,"comparative":6935,"5.2":6936,"##ropy":6937,"organizations":6938,"transitions":6939,"barrier":6940,"##iber":6941,"probabilities":6942,"reporting":6943,"##orient":6944,"##esian":6945,"pediatric":6946,"targeting":6947,"##treatment":6948,"acous":6949,"discharge":6950,"##3:":6951,"nanoparticles":6952,"wound":6953,"ventricular":6954,"sind":6955,"acknowledgments":6956,"vacu":6957,"##4–":6958,"immediate":6959,"##3/":6960,"mag":6961,"offers":6962,"concluded":6963,"bits":6964,"2001).":6965,"primers":6966,"genotype":6967,"alloc":6968,"##za":6969,"shorter":6970,"[4].":6971,"tp":6972,"##from":6973,"5.1":6974,"clon":6975,"symb":6976,"disk":6977,"legal":6978,"##values":6979,"##department":6980,"hippocamp":6981,"##dec":6982,"feeding":6983,"metrics":6984,"datasets":6985,"spectrom":6986,"difficulty":6987,"greatly":6988,"bs":6989,"##aired":6990,"arab":6991,"2000).":6992,"fetal":6993,"##idden":6994,"gave":6995,"##ulative":6996,"##chen":6997,"sel":6998,"##ala":6999,"##alities":7000,"##opsy":7001,"variant":7002,"##xx":7003,"derive":7004,"##public":7005,"reproduction":7006,"besides":7007,"smith":7008,"hb":7009,"heterogeneous":7010,"haz":7011,"aj":7012,"var":7013,"kore":7014,"preference":7015,"enables":7016,"improvements":7017,"##athe":7018,"arterial":7019,"##cing":7020,"drive":7021,"acts":7022,"##1016/":7023,"##mia":7024,"##inflammatory":7025,"##)).":7026,"conserved":7027,"##acial":7028,"anth":7029,"salt":7030,"definitions":7031,"modules":7032,"##non":7033,"kon":7034,"yeast":7035,"covered":7036,"indicators":7037,"expressing":7038,"vaccine":7039,"##rot":7040,"discrim":7041,"queries":7042,"returns":7043,"derm":7044,"bd":7045,"rural":7046,"flexible":7047,"choos":7048,"ou":7049,"river":7050,"longitudinal":7051,"tn":7052,"attribute":7053,"macrophages":7054,"##rene":7055,"##ulates":7056,"fif":7057,"transplantation":7058,"nons":7059,"fewer":7060,"wet":7061,"waves":7062,"stack":7063,"##rical":7064,"##war":7065,"##rogen":7066,"consisted":7067,"lap":7068,"rus":7069,"scanning":7070,"conditional":7071,"lp":7072,"paradig":7073,"pump":7074,"excitation":7075,"comes":7076,"constants":7077,"##activation":7078,"68":7079,"##journals":7080,"zn":7081,".3":7082,"imped":7083,"##page":7084,"##methyl":7085,"##opathy":7086,"4.5":7087,"##flu":7088,"##ault":7089,"impaired":7090,"collis":7091,"##ozy":7092,"enrol":7093,"sufficiently":7094,"infrastructure":7095,"micros":7096,"##wt":7097,"ee":7098,"ker":7099,"##mental":7100,"nloaded":7101,"20,":7102,"##mol":7103,"rg":7104,"##.3)":7105,"##tious":7106,"66":7107,"##dominal":7108,"prost":7109,"sav":7110,"##weight":7111,"rain":7112,"clean":7113,"12.":7114,"antioxid":7115,"saline":7116,"precurs":7117,"##ja":7118,"nk":7119,"degen":7120,"today":7121,"connections":7122,"##ading":7123,"##ulum":7124,"trop":7125,"pin":7126,"compati":7127,"scope":7128,"interfaces":7129,"##pressive":7130,"##onym":7131,"efficiently":7132,"supern":7133,"##′)":7134,"rp":7135,"transformed":7136,"matched":7137,"transcript":7138,"62":7139,"##idi":7140,"stronger":7141,"union":7142,"##ira":7143,"aggregation":7144,"allele":7145,"deposition":7146,"eb":7147,"london":7148,"pathology":7149,"optimized":7150,"##grade":7151,"5).":7152,"creative":7153,"2013;":7154,"##ago":7155,"##tery":7156,"intrinsic":7157,"##ceptions":7158,"hormone":7159,"surrounding":7160,"regardless":7161,"##essor":7162,"released":7163,"##itary":7164,"clinically":7165,"94":7166,"aber":7167,"##onom":7168,"heterogeneity":7169,"tetr":7170,"##03":7171,"fibers":7172,"actin":7173,"organized":7174,"retros":7175,"consistency":7176,"antim":7177,"subjected":7178,"(100":7179,"modeled":7180,"##ondition":7181,"##:5":7182,"macro":7183,"surprising":7184,"##vial":7185,"modelling":7186,"##mem":7187,"physicians":7188,"positively":7189,"##′,":7190,"##pase":7191,"derivative":7192,"##osity":7193,"##ono":7194,"substrates":7195,"ure":7196,"cytokines":7197,"summarized":7198,"vulner":7199,"solvent":7200,"##hu":7201,"indicator":7202,"##amy":7203,"regulated":7204,"##ione":7205,"recombinant":7206,"explicitly":7207,"files":7208,"overlap":7209,"[11]":7210,"##sn":7211,"fourth":7212,"tip":7213,"##aki":7214,"́":7215,"1(":7216,"tab":7217,"manual":7218,"writing":7219,"##tra":7220,"hepatic":7221,"trained":7222,"##det":7223,"[5].":7224,"##ologists":7225,"ranges":7226,"acm":7227,"scho":7228,"mu":7229,"dn":7230,"(11)":7231,"##rought":7232,"##acer":7233,"clinic":7234,"biochemical":7235,"benchmark":7236,"cdna":7237,"institutions":7238,"##dehy":7239,"solved":7240,"corp":7241,"[1,":7242,"held":7243,"dors":7244,"##heric":7245,"relevance":7246,"interpreted":7247,"expert":7248,"faculty":7249,"defic":7250,"sequential":7251,"instruments":7252,"§":7253,"leak":7254,"routine":7255,"##henyl":7256,"hydroph":7257,"braz":7258,"lot":7259,"stere":7260,"normally":7261,"customer":7262,"gastric":7263,"##oprotein":7264,"assignment":7265,"australia":7266,"##tention":7267,"donor":7268,"competing":7269,"capabilities":7270,"processor":7271,"##illed":7272,"^":7273,"counts":7274,"theories":7275,"##typ":7276,"##operation":7277,"replacement":7278,"entit":7279,"luc":7280,"##anth":7281,"distr":7282,"accurately":7283,"##unately":7284,"transactions":7285,"feel":7286,"operational":7287,"syst":7288,"intu":7289,"driving":7290,"##oo":7291,"reviews":7292,"explored":7293,"ry":7294,"picture":7295,"satisfied":7296,"medication":7297,"##8–":7298,"chains":7299,"resol":7300,"interested":7301,"cord":7302,"transmitted":7303,"##otropic":7304,"##db":7305,"awa":7306,"assistance":7307,"heuristic":7308,"1999;":7309,"##ership":7310,"##rench":7311,"logistic":7312,"cathe":7313,"persons":7314,"consecutive":7315,"##isely":7316,"runs":7317,"##ptive":7318,"67":7319,"synthesized":7320,"14,":7321,"sensory":7322,"##ette":7323,"##ipped":7324,"##istrib":7325,"dut":7326,"##size":7327,"elder":7328,"creating":7329,"##enter":7330,"valuable":7331,"limitation":7332,"requests":7333,"took":7334,"##.),":7335,"opportunity":7336,"kinds":7337,"##dh":7338,"recurrence":7339,"##olds":7340,"bund":7341,"suppression":7342,"giving":7343,"dead":7344,"ru":7345,"##ony":7346,"filters":7347,"wiley":7348,"downstream":7349,"throughput":7350,"##oke":7351,"sole":7352,"tang":7353,"hos":7354,"usual":7355,"impairment":7356,"trajectory":7357,"cleav":7358,"plasmid":7359,"##je":7360,"preferred":7361,"sugges":7362,"##osomes":7363,"chip":7364,"acces":7365,"verify":7366,"inters":7367,"fracture":7368,"ideas":7369,"invariant":7370,"conservation":7371,"geometric":7372,"##9],":7373,"##inder":7374,".4":7375,"##life":7376,"multim":7377,"traits":7378,"##plicity":7379,"96":7380,"productivity":7381,"fluctu":7382,"6-":7383,"initiation":7384,"##df":7385,"dar":7386,"cytos":7387,"primer":7388,"##uli":7389,"##ques":7390,"drawn":7391,"collaboration":7392,"##respon":7393,"gab":7394,"coordination":7395,"##atch":7396,"deple":7397,"generic":7398,"##04":7399,"cx":7400,"##lated":7401,"kar":7402,"##anese":7403,"##hentic":7404,"finger":7405,"applicable":7406,"pref":7407,".00":7408,"[6].":7409,"emergency":7410,"deficiency":7411,"compil":7412,"cis":7413,"complicated":7414,"aims":7415,"illustrate":7416,"hypox":7417,"chi":7418,"dend":7419,"##1],":7420,"tumour":7421,"##kb":7422,"films":7423,"extreme":7424,"economy":7425,"stained":7426,"accordingly":7427,"producing":7428,"##itin":7429,"intestinal":7430,"##igation":7431,"##bes":7432,"susceptibility":7433,"train":7434,"milk":7435,"##len":7436,"yang":7437,"##rp":7438,"lists":7439,"hour":7440,"worth":7441,"##urations":7442,"2012).":7443,"##00,":7444,"boundaries":7445,"beneficial":7446,"tio":7447,"downloaded":7448,"[12]":7449,"cub":7450,"databases":7451,"bip":7452,"thread":7453,"##itig":7454,"latency":7455,"##reness":7456,"##yth":7457,"##comm":7458,"deletion":7459,"##eh":7460,"delayed":7461,"amplification":7462,"##ellite":7463,"wir":7464,"defect":7465,"77":7466,"chamber":7467,"marginal":7468,"fro":7469,"(95%":7470,"##agement":7471,"##.11":7472,"lens":7473,"(12)":7474,"template":7475,"hospit":7476,"entropy":7477,"##haus":7478,"atomic":7479,"dispersion":7480,"bmi":7481,"monit":7482,"homogeneous":7483,"increasingly":7484,"investigations":7485,"notation":7486,"anne":7487,"somewhat":7488,"aimed":7489,"##osomal":7490,"2018":7491,"ζ":7492,"quickly":7493,"##adder":7494,"##mt":7495,"##ulties":7496,"##ozyg":7497,"##.5)":7498,"demonstrates":7499,"elsevier":7500,"13,":7501,"cultiv":7502,"polyp":7503,"cytotox":7504,"overcome":7505,"rom":7506,"cache":7507,"cad":7508,"comments":7509,"columns":7510,"motivation":7511,"admission":7512,"##ostic":7513,"circuits":7514,"willi":7515,"king":7516,"psychology":7517,"##then":7518,"##bro":7519,"coinc":7520,"1.4":7521,"store":7522,"##elec":7523,"opportunities":7524,"20%":7525,"package":7526,"1.3":7527,"currents":7528,"##queous":7529,"ith":7530,"priority":7531,"##after":7532,"lt":7533,"[7].":7534,"##acturing":7535,"displacement":7536,"biomass":7537,"exponential":7538,"##inn":7539,"hierarchical":7540,"##137":7541,"obser":7542,"foreign":7543,"neon":7544,"pla":7545,"1998;":7546,"trigger":7547,"ubiqu":7548,"biomed":7549,"neurosci":7550,"modifications":7551,"transcriptional":7552,"cavity":7553,"cerv":7554,"bac":7555,"regime":7556,"advance":7557,"adjustment":7558,"fractions":7559,"localized":7560,"##ophys":7561,"carrier":7562,"##poin":7563,"periodic":7564,"surge":7565,"mining":7566,"locally":7567,"biomark":7568,"resistant":7569,"bow":7570,"hg":7571,"##eds":7572,"xx":7573,"relaxation":7574,"freed":7575,"bounds":7576,"distal":7577,"##defined":7578,"##gfp":7579,"##van":7580,"teachers":7581,"##.).":7582,"100%":7583,"reasoning":7584,"impos":7585,"affecting":7586,"2003":7587,"organisms":7588,"##ancies":7589,"burden":7590,"meeting":7591,"cyp":7592,"##ergies":7593,"##ische":7594,"thesis":7595,"##orrh":7596,"(1,":7597,"##ynt":7598,"diabetic":7599,"##9/":7600,"occl":7601,"emerging":7602,"roots":7603,"##gue":7604,"für":7605,"filtering":7606,"xn":7607,"african":7608,"##requency":7609,"61":7610,"africa":7611,"##hma":7612,"##cre":7613,"bad":7614,"cation":7615,"prev":7616,"competitive":7617,"documented":7618,"##.9":7619,"scr":7620,"suspension":7621,"...,":7622,"##.4)":7623,"##sol":7624,"conform":7625,"notes":7626,"##uity":7627,"precisely":7628,"##lecular":7629,"accordance":7630,"##illing":7631,"mature":7632,"monitored":7633,"##])":7634,"##iner":7635,"oce":7636,"preferences":7637,"office":7638,"##ellen":7639,"##produc":7640,"17.":7641,"multivariate":7642,"rod":7643,"implicit":7644,"##body":7645,"unclear":7646,"##51":7647,"refers":7648,"##structure":7649,"ranged":7650,"0:":7651,"attacks":7652,"##add":7653,"overhead":7654,"##ulatory":7655,"sessions":7656,"dab":7657,"provision":7658,"elic":7659,"tet":7660,"asc":7661,"##inte":7662,"southern":7663,"vessels":7664,"##onin":7665,"##.10":7666,"74":7667,"##du":7668,"powerful":7669,"augment":7670,"defining":7671,"##azole":7672,"insight":7673,"universal":7674,"agricultural":7675,"##ota":7676,"illustrates":7677,"##actory":7678,"##scs":7679,"∣∣":7680,"impacts":7681,"##onch":7682,"cha":7683,"fitness":7684,"ji":7685,"participate":7686,"##tors":7687,"creation":7688,"brazil":7689,"ft":7690,"colleag":7691,"##night":7692,"generator":7693,"intensive":7694,"reflected":7695,"##-(":7696,"publish":7697,"4.4":7698,"aging":7699,"cros":7700,"attached":7701,"passive":7702,"aqueous":7703,"correctly":7704,"authentic":7705,"##-12":7706,"##adj":7707,"oder":7708,"##uple":7709,"consumer":7710,".7":7711,"rect":7712,"park":7713,"##asp":7714,"orthog":7715,"hex":7716,"secret":7717,"cancers":7718,"##incl":7719,"tg":7720,"##atr":7721,"[8].":7722,"behind":7723,"arrow":7724,"galax":7725,"intended":7726,"##nl":7727,"seconds":7728,"##opic":7729,"##adic":7730,"elderly":7731,"maintaining":7732,"##odynamic":7733,"##print":7734,"signature":7735,"##ologous":7736,"newly":7737,"##helium":7738,"providers":7739,"##mr":7740,"##atur":7741,"asthma":7742,"##stage":7743,"margin":7744,"##58":7745,"tf":7746,"##--------":7747,"angles":7748,"##⁄2":7749,"##tg":7750,"69":7751,"##rimin":7752,"atom":7753,"polarization":7754,"alterations":7755,"nuclei":7756,"sampled":7757,"##yal":7758,"##iliar":7759,"##lag":7760,"conformation":7761,"##xn":7762,"rv":7763,"difficulties":7764,"interpol":7765,"dental":7766,"neighborhood":7767,"##perf":7768,"hydr":7769,"##gel":7770,"automated":7771,"residue":7772,"##onucle":7773,"##............":7774,"hospitals":7775,"[13]":7776,"abdominal":7777,"##hg":7778,"spectroscopy":7779,"##oli":7780,"neuron":7781,"##2],":7782,"##thern":7783,"##hum":7784,"##usc":7785,"acceptable":7786,"##del":7787,"embryos":7788,"professor":7789,"substantially":7790,"##cam":7791,"##bilities":7792,"##oming":7793,"influences":7794,"mixing":7795,"16,":7796,"verte":7797,"insertion":7798,"##eller":7799,"##aceu":7800,"ultrasound":7801,"kne":7802,"characterize":7803,"##1/2":7804,"east":7805,"tight":7806,"insuff":7807,"outputs":7808,"recording":7809,"##,\"":7810,"##zero":7811,"manufacturer":7812,"describing":7813,"##ogens":7814,"amy":7815,"semantics":7816,"manifest":7817,"varies":7818,"challenging":7819,"interfer":7820,"inherent":7821,"nursing":7822,"##ocar":7823,"aqu":7824,"employment":7825,"microscope":7826,"bri":7827,"subsc":7828,"sediment":7829,"##iling":7830,"visualization":7831,"chromatography":7832,"discrimin":7833,"attempts":7834,"lev":7835,"assessing":7836,"penetr":7837,"markets":7838,"ah":7839,"##achment":7840,"##irable":7841,"##bac":7842,"season":7843,"enterpr":7844,"facilities":7845,"speci":7846,"gir":7847,"##supplement":7848,"nitr":7849,"##dehyde":7850,"helpful":7851,"aid":7852,"properly":7853,"vesic":7854,"cox":7855,"som":7856,"importantly":7857,"urine":7858,"##pler":7859,"morb":7860,"whom":7861,"invasive":7862,"malignant":7863,"coc":7864,"proven":7865,"##cents":7866,"wu":7867,"stay":7868,"......":7869,"yes":7870,"98":7871,"trauma":7872,"supernat":7873,"radial":7874,"abnormalities":7875,"merg":7876,"prin":7877,"unfort":7878,"causing":7879,"infusion":7880,"gut":7881,"1999).":7882,"undergo":7883,"##opl":7884,"##tron":7885,"hund":7886,"manufacturing":7887,"bov":7888,"wird":7889,"##totic":7890,"copies":7891,"biopsy":7892,"candidates":7893,"analyzing":7894,".8":7895,"##usi":7896,"jr":7897,"78":7898,"reader":7899,"##patient":7900,"reh":7901,"fibrobl":7902,"eyes":7903,"shear":7904,"validated":7905,"##resist":7906,"fract":7907,"structured":7908,"machines":7909,"##enty":7910,"marrow":7911,"##keit":7912,"##sing":7913,"send":7914,"2014;":7915,"84":7916,"orb":7917,"metall":7918,"##istration":7919,"judg":7920,"mineral":7921,"##edia":7922,"kb":7923,"[9].":7924,"1997;":7925,"northern":7926,"commons":7927,"quar":7928,"generates":7929,"ray":7930,"inoc":7931,"probes":7932,"infinite":7933,"updated":7934,"##ames":7935,"##ora":7936,"formul":7937,"choices":7938,"schools":7939,"patch":7940,"counc":7941,"##anger":7942,"##ima":7943,"awareness":7944,"master":7945,"##ower":7946,"##aut":7947,"nucleotide":7948,"phone":7949,"##book":7950,"nn":7951,"##ito":7952,"connectivity":7953,"protective":7954,"constructs":7955,"incident":7956,"inference":7957,"##.\"":7958,".6":7959,"##tization":7960,"perman":7961,"##iliary":7962,"colleagues":7963,"yu":7964,"##infected":7965,"fold":7966,"flexibility":7967,"america":7968,"10-":7969,"cg":7970,"phd":7971,"##eta":7972,"(13)":7973,"email":7974,"##ief":7975,"microbial":7976,"bring":7977,"##.2.":7978,"105":7979,"neck":7980,"##called":7981,"unless":7982,"##ilton":7983,"arise":7984,"neph":7985,"cohe":7986,"requiring":7987,"vag":7988,"discontin":7989,"intact":7990,"constitu":7991,"mad":7992,"##activated":7993,"##sam":7994,"##iro":7995,"sds":7996,"##oriented":7997,"organizational":7998,"recurrent":7999,"[14]":8000,"socio":8001,"##aper":8002,"fc":8003,"##7/":8004,"placement":8005,"swed":8006,"hm":8007,"cervical":8008,"demographic":8009,"agon":8010,"##lan":8011,"federal":8012,"##wan":8013,"proximal":8014,"##olip":8015,"reflects":8016,"2013).":8017,"pancreatic":8018,"##usp":8019,"discussions":8020,"2008,":8021,"italy":8022,"triple":8023,"schiz":8024,"gon":8025,"captured":8026,"designs":8027,"##.5%":8028,"substitution":8029,"adapted":8030,"kinetic":8031,"retention":8032,"hidden":8033,"coroll":8034,"symbols":8035,"600":8036,"##08":8037,"##clin":8038,"classifier":8039,"athe":8040,"optimum":8041,"reproductive":8042,"wie":8043,"##ola":8044,"21.":8045,"unter":8046,"locus":8047,"gall":8048,"lifetime":8049,"emissions":8050,"##iotics":8051,"hydroly":8052,"##psych":8053,"advances":8054,"##iversity":8055,"infec":8056,"threat":8057,"rice":8058,"lex":8059,"regulate":8060,"ecos":8061,"shr":8062,"2002":8063,"angular":8064,"accompl":8065,"concurrent":8066,"configurations":8067,"##such":8068,"##06":8069,"domestic":8070,"viewed":8071,"historical":8072,"averaged":8073,"##52":8074,"going":8075,"redund":8076,"##bu":8077,"dh":8078,"empty":8079,"laborator":8080,"##wi":8081,"##ige":8082,"infil":8083,"rub":8084,"harv":8085,"fuel":8086,"gray":8087,"adolescents":8088,"integrity":8089,"##nk":8090,"interactive":8091,"##ivered":8092,"##auge":8093,"##ander":8094,"73":8095,"##zt":8096,"(%)":8097,"urinary":8098,"flav":8099,"circulation":8100,"nad":8101,"readily":8102,"##uries":8103,"chol":8104,"##asm":8105,"ovari":8106,"##ycl":8107,"aggregate":8108,"obviously":8109,"[10].":8110,"concerned":8111,"improves":8112,"eventually":8113,"##erative":8114,"bill":8115,"76":8116,"##@@@@":8117,"agency":8118,"##itone":8119,"13.":8120,"sinus":8121,"1998).":8122,"##pk":8123,"##acchar":8124,"2010,":8125,"(20":8126,"ontology":8127,"##ynthesis":8128,"##arget":8129,"##loid":8130,".9":8131,"##(1,":8132,"proton":8133,"##dy":8134,"##optim":8135,"2009,":8136,"consistently":8137,"hypotheses":8138,"##′′":8139,"recruitment":8140,"##.1,":8141,"hip":8142,"thyroid":8143,"##rep":8144,"##emble":8145,"cytokine":8146,"lib":8147,"decades":8148,"instruction":8149,"univ":8150,"instant":8151,"##icro":8152,"things":8153,"eryth":8154,"functioning":8155,"promin":8156,"stimulated":8157,"arguments":8158,"detecting":8159,"##unic":8160,"##aceutical":8161,"cyl":8162,"methylation":8163,"consult":8164,"une":8165,"##+)":8166,"##card":8167,"win":8168,"##enh":8169,"gy":8170,"0.25":8171,"∥":8172,"##aka":8173,"casc":8174,"stationary":8175,"dimensional":8176,"terr":8177,"econom":8178,"persistent":8179,"##month":8180,"##frequency":8181,"ect":8182,"anova":8183,"ay":8184,"densities":8185,"##squ":8186,"arrang":8187,"fourier":8188,"manager":8189,"aux":8190,"##gent":8191,"unfortunately":8192,"caps":8193,"occas":8194,"ocean":8195,"lps":8196,"##func":8197,"bodies":8198,"†":8199,"##using":8200,"(50":8201,"kle":8202,"88":8203,"4:":8204,"2007,":8205,"##economic":8206,"##hydr":8207,"privacy":8208,"##ohist":8209,"phenomena":8210,"bon":8211,"##oa":8212,"##ophy":8213,"##roscopic":8214,"intelligence":8215,"mw":8216,"cumulative":8217,"histological":8218,"verified":8219,"##plicate":8220,"branc":8221,"considerably":8222,"drink":8223,"##oidal":8224,"verification":8225,"##ipl":8226,"##stable":8227,"gn":8228,"resection":8229,"univer":8230,"hundred":8231,"offered":8232,"##alk":8233,"reveals":8234,"fruit":8235,"))":8236,"##ional":8237,"transgenic":8238,"subjective":8239,"webs":8240,"hair":8241,"math":8242,"diges":8243,"freedom":8244,"##erge":8245,"##rele":8246,"##plc":8247,"##59":8248,"absorb":8249,"##formed":8250,"∇":8251,"council":8252,"quantities":8253,"stret":8254,"excit":8255,"venti":8256,"##∣∣":8257,"cambridge":8258,"5)":8259,"##restim":8260,"electrom":8261,"tgf":8262,"##tub":8263,"##hor":8264,"depicted":8265,"corollary":8266,"quantification":8267,"invasion":8268,"##ami":8269,"contex":8270,"##anz":8271,"satisfying":8272,"fluorescent":8273,"spr":8274,"guest":8275,"97":8276,"customers":8277,"##otal":8278,"schedule":8279,"##mn":8280,"##ios":8281,"dimin":8282,"paradigm":8283,"incorporated":8284,"##07":8285,"invent":8286,"vehicles":8287,"##amination":8288,"entities":8289,"defines":8290,"conserv":8291,"fire":8292,"2001":8293,"logical":8294,"lr":8295,"##alog":8296,"artif":8297,"agree":8298,"delivered":8299,"##rete":8300,"Å":8301,"submitted":8302,"visit":8303,"acoustic":8304,"##uis":8305,"younger":8306,"negatively":8307,"bol":8308,"circular":8309,"nacl":8310,"##–10":8311,"##illance":8312,"viruses":8313,"physician":8314,"dd":8315,"symptom":8316,"determines":8317,"##gens":8318,"000":8319,"prolonged":8320,"##this":8321,"##ercul":8322,"##onomy":8323,"5.3":8324,"predictor":8325,"##kn":8326,"encr":8327,"doing":8328,"naturally":8329,"##rected":8330,"absent":8331,"##=2":8332,"##ropath":8333,"energies":8334,"2011,":8335,"##apor":8336,"##containing":8337,"worksh":8338,"##risk":8339,"fitting":8340,"reserv":8341,"rst":8342,"bars":8343,"fulf":8344,"1996;":8345,"##oted":8346,"##points":8347,"consumers":8348,"viability":8349,"2006,":8350,"myc":8351,"##0.01":8352,"##prot":8353,"##ime":8354,"##atum":8355,"##has":8356,"completion":8357,"adsorption":8358,"##itudes":8359,"calls":8360,"unre":8361,"auc":8362,"[15]":8363,"metastasis":8364,"##ohy":8365,"sant":8366,"ppm":8367,"##icated":8368,"110":8369,"##prin":8370,"##icians":8371,"##-,":8372,"##iders":8373,"paul":8374,"##fam":8375,"insights":8376,"##3],":8377,"gar":8378,"neutroph":8379,"stiff":8380,"progressive":8381,"##+,":8382,"##likely":8383,"ecological":8384,"##.5,":8385,"immunohist":8386,"glyc":8387,"credit":8388,"##open":8389,"recover":8390,"kinetics":8391,"spot":8392,"##fir":8393,"apart":8394,"##otr":8395,"estimating":8396,"##uated":8397,"copper":8398,"(14)":8399,"##tm":8400,"bleeding":8401,"shifts":8402,"##pet":8403,"johns":8404,"converted":8405,"##eren":8406,"14.":8407,"limiting":8408,"causal":8409,"alkal":8410,"##aken":8411,"cited":8412,"volati":8413,"##illin":8414,"##cutaneous":8415,"presum":8416,"##veness":8417,"laboratories":8418,"prognosis":8419,"##10,":8420,"hind":8421,"discrimination":8422,"##otypic":8423,"overexpression":8424,"plasm":8425,"curv":8426,"looking":8427,"childhood":8428,"##phone":8429,"##osome":8430,"gram":8431,"catalyst":8432,"muscles":8433,"twenty":8434,"2005,":8435,"18,":8436,"forming":8437,"electrodes":8438,"handle":8439,"subunit":8440,"highlight":8441,"ui":8442,"##onti":8443,"##onsist":8444,"lies":8445,"secure":8446,"comprom":8447,"##/201":8448,"volumes":8449,"[11].":8450,"##mar":8451,"##cap":8452,"singular":8453,"0.02":8454,"79":8455,"##pted":8456,"##reci":8457,"heating":8458,"##ishes":8459,"purchased":8460,"##qi":8461,"83":8462,"##otion":8463,"publications":8464,"##opes":8465,"##heres":8466,"studying":8467,"87":8468,"orthogonal":8469,"abuse":8470,"##ylated":8471,"games":8472,"organs":8473,"cast":8474,"try":8475,"genetics":8476,"##adian":8477,"blind":8478,"subsets":8479,"##draw":8480,"nervous":8481,"probabil":8482,"orders":8483,"##high":8484,"##that":8485,"##cious":8486,"complementary":8487,"marine":8488,"scienti":8489,"sb":8490,"yi":8491,"soluble":8492,"##exist":8493,"entity":8494,"##0.5":8495,"vl":8496,"##independent":8497,"recovered":8498,"fluctuations":8499,"##plex":8500,"crop":8501,"springer":8502,"strictly":8503,"uniformly":8504,"dense":8505,"cow":8506,"ethics":8507,"##4/":8508,"##har":8509,"progen":8510,"considerations":8511,"focal":8512,"ongoing":8513,"race":8514,"demands":8515,"facility":8516,"sentence":8517,"pathological":8518,"reflection":8519,"rely":8520,"17,":8521,"reality":8522,"fs":8523,"##present":8524,"iterations":8525,"contributes":8526,"lag":8527,"strati":8528,"##ewise":8529,"##(4)":8530,"##arest":8531,"crow":8532,"tris":8533,"fisher":8534,"snr":8535,"endocr":8536,"##ask":8537,"realistic":8538,"##itance":8539,"##’.":8540,"names":8541,"synaptic":8542,"retro":8543,"scene":8544,"constrained":8545,"lengths":8546,"programme":8547,"plotted":8548,"##oder":8549,"##aylor":8550,"infectious":8551,"tension":8552,"starts":8553,"vessel":8554,"##enza":8555,"nutrition":8556,"sud":8557,"academ":8558,"continuously":8559,"##meas":8560,"potentials":8561,"straightforward":8562,"##omycin":8563,"insurance":8564,"surveys":8565,"isot":8566,"ethical":8567,"##gp":8568,"surveillance":8569,"dissolved":8570,"prototype":8571,"interviews":8572,"saturation":8573,"intraven":8574,"tam":8575,"unable":8576,"##onical":8577,"functionality":8578,"pilot":8579,"compliance":8580,"players":8581,"facial":8582,"raised":8583,"##sig":8584,"##wood":8585,"##09":8586,"gang":8587,"destination":8588,"lingu":8589,"##inol":8590,"warm":8591,"##itus":8592,"manage":8593,"##cu":8594,"serial":8595,"quantified":8596,"##herlands":8597,"[12].":8598,"##ael":8599,"##7-":8600,"##protein":8601,"##ere":8602,"loci":8603,"##rn":8604,"silicon":8605,"##empor":8606,"##mill":8607,"##mes":8608,"versions":8609,"court":8610,"please":8611,"##unced":8612,"+/-":8613,"standardized":8614,"polymerase":8615,"15.":8616,"transaction":8617,"ik":8618,"mammalian":8619,"##urable":8620,"71":8621,"prognostic":8622,"93":8623,"infarc":8624,"(15)":8625,"##ucl":8626,"unlikely":8627,"obtaining":8628,"performs":8629,"impedance":8630,"bayesian":8631,"1990":8632,"rehabil":8633,"##gluc":8634,"closer":8635,"yellow":8636,"##echnology":8637,"ghz":8638,"##:4":8639,"mathematics":8640,"aortic":8641,"##iers":8642,"##gene":8643,"labeling":8644,"bronch":8645,"guidance":8646,"dv":8647,"wol":8648,"##hard":8649,"##making":8650,"antimicro":8651,"hamilton":8652,"contexts":8653,"thi":8654,"2012,":8655,"robustness":8656,"searc":8657,"##ram":8658,"mothers":8659,"overnight":8660,"experts":8661,"1997).":8662,"##ishing":8663,"pathogenesis":8664,"##atz":8665,"##ashion":8666,"argue":8667,"##okine":8668,"undergoing":8669,"strept":8670,"##olym":8671,"contrary":8672,"caro":8673,"ae":8674,"netherlands":8675,"86":8676,"circumst":8677,"elevation":8678,"##partic":8679,"106":8680,"fax":8681,"30,":8682,"mf":8683,"compensation":8684,"##troph":8685,"ordered":8686,"##labeled":8687,"unters":8688,"antioxidant":8689,"texture":8690,"##reduc":8691,"##inate":8692,"chest":8693,"##cg":8694,"endoscop":8695,"##icular":8696,"bilateral":8697,"92":8698,"experimentally":8699,"diagonal":8700,"fibrosis":8701,"##vation":8702,"##sip":8703,"examining":8704,"beliefs":8705,"epile":8706,"82":8707,"transfected":8708,"learned":8709,"knee":8710,"vot":8711,"imply":8712,"##sche":8713,"ages":8714,"initiated":8715,"[16]":8716,"ultimately":8717,"regarded":8718,"barriers":8719,"##dna":8720,"bovine":8721,"ud":8722,"##pin":8723,"##sten":8724,"##ulose":8725,"physiol":8726,"indian":8727,"default":8728,"momentum":8729,"##4],":8730,"handling":8731,"blocking":8732,"sparse":8733,"outl":8734,"##500":8735,"##word":8736,"exclusion":8737,"cry":8738,"##fil":8739,"##bel":8740,"catalytic":8741,"realized":8742,"ǫ":8743,"schizoph":8744,"pharmaceutical":8745,"topics":8746,"dissoci":8747,"##ococc":8748,"mj":8749,"disclos":8750,"deviations":8751,"truth":8752,"##orous":8753,"##right":8754,"fati":8755,"##ucid":8756,"plans":8757,"predictors":8758,"retrospective":8759,"island":8760,"instability":8761,"relig":8762,"rl":8763,"##acting":8764,"89":8765,"pick":8766,"Ψ":8767,"##rocytes":8768,"neglig":8769,"ellip":8770,"##case":8771,"reward":8772,"21,":8773,"player":8774,"queue":8775,"protected":8776,"skeletal":8777,"[30":8778,"supplemented":8779,"acs":8780,"gauge":8781,"22.":8782,"cyclic":8783,"expectations":8784,"collaborative":8785,"bot":8786,"monot":8787,"##omething":8788,"conflicts":8789,"accounts":8790,"sj":8791,"diffr":8792,"2004,":8793,"##omorphic":8794,"##including":8795,"##3(":8796,"technological":8797,"##sign":8798,"nutrient":8799,"deformation":8800,"1995;":8801,"ans":8802,"##cir":8803,"##cha":8804,"coast":8805,"td":8806,"##-1)":8807,"focusing":8808,"choosing":8809,"##110":8810,"##inement":8811,"bic":8812,"fashion":8813,"limb":8814,"encryp":8815,"inconsist":8816,"seiz":8817,"familiar":8818,"anomal":8819,"##rosine":8820,"nurses":8821,"guarantee":8822,"ovarian":8823,"aspir":8824,"mcc":8825,"attitudes":8826,"employees":8827,"covariance":8828,"vein":8829,"photo":8830,"gamma":8831,"named":8832,"bab":8833,"##hene":8834,"jac":8835,"##oman":8836,"predicting":8837,"##etary":8838,"charged":8839,"##tish":8840,"##brevi":8841,"platelet":8842,"##driven":8843,"##tification":8844,"sustained":8845,"crypt":8846,"discovered":8847,"intel":8848,"corrected":8849,"##bas":8850,"substance":8851,"qi":8852,"subtr":8853,"comment":8854,"labels":8855,"figs":8856,"##||":8857,"##ación":8858,"##vin":8859,"morbidity":8860,"accompanied":8861,"century":8862,"rock":8863,"##dem":8864,"##itter":8865,"##alling":8866,"ku":8867,"nit":8868,"##nis":8869,"##.00":8870,"##agged":8871,"iterative":8872,"precipitation":8873,"##hom":8874,"aware":8875,"therapies":8876,"nj":8877,"focuses":8878,"##bh":8879,"mann":8880,"music":8881,"##ials":8882,"publis":8883,"multipl":8884,"##model":8885,"potent":8886,"(−":8887,"elucid":8888,"quasi":8889,"##idel":8890,"citation":8891,"##ona":8892,"2008.":8893,"faces":8894,"satellite":8895,"irradiation":8896,"##oot":8897,"##osh":8898,"concentrated":8899,"lg":8900,"##house":8901,"##1371/":8902,"##bles":8903,"dorsal":8904,"belief":8905,"han":8906,"ambig":8907,"fear":8908,"anticip":8909,"civ":8910,"##.200":8911,"##actin":8912,"##omers":8913,"retinal":8914,"operate":8915,"markov":8916,"##uss":8917,"genotypes":8918,"##orbed":8919,"probabilistic":8920,"10.10":8921,"ligands":8922,"##omorphism":8923,"##nh":8924,"sharp":8925,"abundant":8926,"tac":8927,"##akers":8928,"[13].":8929,"selecting":8930,"tomography":8931,"bright":8932,"##gestion":8933,"##asive":8934,"phylogenetic":8935,"graft":8936,"##ensis":8937,"exploration":8938,"##4:":8939,"landsc":8940,"6).":8941,"sigma":8942,"poorly":8943,"hierarchy":8944,"schw":8945,"worse":8946,"gross":8947,"acceler":8948,"schizophren":8949,"##aped":8950,"tx":8951,"ends":8952,"pseudo":8953,"##renal":8954,"discrep":8955,"bh":8956,"trunc":8957,"catheter":8958,"81":8959,"##yi":8960,"hydrox":8961,"bonds":8962,"antibiotic":8963,"30.":8964,"putative":8965,"ug":8966,"180":8967,"rheum":8968,"transpa":8969,"hepatitis":8970,"cleavage":8971,"##opsis":8972,"something":8973,"recognize":8974,"##rad":8975,"forecast":8976,"##las":8977,"helps":8978,"##imination":8979,"##.2,":8980,"(196":8981,"entries":8982,"permits":8983,"2009.":8984,"emotion":8985,"protect":8986,"interconn":8987,"##olytic":8988,"##elfare":8989,"expanded":8990,"filtered":8991,"##advant":8992,"##regular":8993,"cereb":8994,"corpus":8995,"##acle":8996,"##isti":8997,"##artments":8998,"##text":8999,"ks":9000,"simplicity":9001,"2007.":9002,"19,":9003,"vill":9004,"tes":9005,"##chlor":9006,"##ifiers":9007,"philos":9008,"##amate":9009,"franc":9010,"transcripts":9011,"##afts":9012,"ran":9013,"chance":9014,"##map":9015,"arrest":9016,"##isch":9017,"##oglobin":9018,"Π":9019,"##aint":9020,"deter":9021,"(1−":9022,"trajectories":9023,"25.":9024,"battery":9025,"##∗(":9026,"##gov":9027,"hl":9028,"7.4":9029,"purs":9030,"##syn":9031,"2010.":9032,"clones":9033,"hill":9034,"inher":9035,"##pf":9036,"##eto":9037,"arrays":9038,"80%":9039,"fixation":9040,"gains":9041,"valve":9042,"tubercul":9043,"harmonic":9044,"scalar":9045,"91":9046,"profit":9047,"neurological":9048,"gradually":9049,"##ming":9050,"roughly":9051,"([":9052,"##-2-":9053,"gfp":9054,"[17]":9055,"1.6":9056,"nanos":9057,"dg":9058,"believed":9059,"##length":9060,"ambi":9061,"2014).":9062,"##ectin":9063,"acting":9064,"adver":9065,"closure":9066,"##uited":9067,"jm":9068,"rabbit":9069,"alt":9070,"##ourse":9071,"blocked":9072,"vacuum":9073,"dot":9074,"30%":9075,"deut":9076,"oriented":9077,"welfare":9078,"##8-":9079,"strategic":9080,"##array":9081,"wavelet":9082,"2003,":9083,"2006.":9084,"##lices":9085,"(2.1":9086,"##0/":9087,"##ocom":9088,"##ographical":9089,"abbrevi":9090,"cooling":9091,"opinion":9092,"presenting":9093,"##′(":9094,"##...,":9095,"linguistic":9096,"##)),":9097,"resolved":9098,"##ocial":9099,"injuries":9100,"##lings":9101,"phon":9102,"fd":9103,"##enses":9104,"drain":9105,"##uing":9106,"inserted":9107,"whenever":9108,"conce":9109,"2005.":9110,"##mb":9111,"korea":9112,"permanent":9113,"offset":9114,"##orth":9115,"##-200":9116,"##ulence":9117,"##-1-":9118,"##pen":9119,"##,,":9120,"##orec":9121,"parental":9122,"metastatic":9123,"erg":9124,"metabolites":9125,"opt":9126,"rip":9127,"impossible":9128,"restrictions":9129,"smallest":9130,"16.":9131,"1]":9132,"pup":9133,"##cation":9134,"1999":9135,"spher":9136,"tendency":9137,"partner":9138,"##tified":9139,"##week":9140,"amplified":9141,"##rared":9142,"##immun":9143,"##loop":9144,"greatest":9145,"thir":9146,"##rophic":9147,"alleles":9148,"##ograms":9149,"depletion":9150,"hole":9151,"##oxyl":9152,"achieving":9153,"addresses":9154,"japanese":9155,"##eme":9156,"##km":9157,"displays":9158,"##teen":9159,"exhibits":9160,"fet":9161,"lacking":9162,"[14].":9163,"biof":9164,"##zh":9165,"##eptide":9166,"quadratic":9167,"##resistant":9168,"immunity":9169,"mitochondria":9170,"eur":9171,"anatom":9172,"##ifies":9173,"ok":9174,"##spring":9175,"photon":9176,"##bur":9177,"dispers":9178,"##\",":9179,"impul":9180,"spent":9181,"seeds":9182,"nano":9183,"(0)":9184,"(16)":9185,"worst":9186,"evid":9187,"extensively":9188,"cooperative":9189,"cues":9190,"necrosis":9191,"mapped":9192,"incomplete":9193,"##-15":9194,"encoded":9195,"5:":9196,"22,":9197,"90%":9198,"##rew":9199,"fn":9200,"antimicrobial":9201,"##−1(":9202,"applies":9203,"##annel":9204,"tensor":9205,"executed":9206,"characters":9207,"converter":9208,"concrete":9209,"##zes":9210,"cpu":9211,"bt":9212,"1996).":9213,"ace":9214,"calculating":9215,"laws":9216,"expensive":9217,"adm":9218,"diluted":9219,"disadvant":9220,"acceptance":9221,"##tail":9222,"intersection":9223,"washington":9224,"eliminate":9225,"cooperation":9226,"penal":9227,"revision":9228,"estimator":9229,"windows":9230,"mutual":9231,"##processing":9232,"inhibits":9233,"acceleration":9234,"grain":9235,"##ococcus":9236,"fas":9237,"relay":9238,"((":9239,"synchronization":9240,"##auf":9241,"lymphocytes":9242,"upstream":9243,"25,":9244,"untreated":9245,"##obs":9246,"easier":9247,"splic":9248,"caspase":9249,"##while":9250,"places":9251,"##cks":9252,"##avail":9253,"sap":9254,"23.":9255,"##cher":9256,"##ey":9257,"##7:":9258,"fatigue":9259,"claims":9260,"24,":9261,"manipulation":9262,"ammon":9263,"practition":9264,"adopt":9265,"##perform":9266,"deaths":9267,"jo":9268,"##idin":9269,"##rr":9270,"sul":9271,"##room":9272,"originally":9273,"transformations":9274,"##enden":9275,"##oni":9276,"##md":9277,"##ados":9278,"david":9279,"geomet":9280,"ˆ":9281,"##auer":9282,"hazard":9283,"##venue":9284,"compatible":9285,"##unte":9286,"##eur":9287,"additive":9288,"goes":9289,"##world":9290,"##resolution":9291,"detectable":9292,"pathogen":9293,"german":9294,"prominent":9295,"##.01":9296,"##rency":9297,"statements":9298,"waters":9299,"commission":9300,"gli":9301,"%)":9302,"wit":9303,"##mitt":9304,"winter":9305,"swe":9306,"antibiotics":9307,"equipped":9308,"##ovirus":9309,"##+1,":9310,"1–":9311,"##pred":9312,"phr":9313,"accounting":9314,"||":9315,"2015;":9316,"2),":9317,"enrich":9318,"prime":9319,"##win":9320,"2004.":9321,"##aden":9322,"##riched":9323,"economics":9324,"appreci":9325,"gs":9326,"envelop":9327,"disability":9328,"ment":9329,"##gered":9330,"##pv":9331,"began":9332,"psychiatric":9333,"served":9334,"controll":9335,"##)=":9336,"##ogly":9337,"thorac":9338,"##hydroxy":9339,"news":9340,"ordering":9341,"ity":9342,"mitig":9343,"introducing":9344,"anis":9345,"##xk":9346,"7.5":9347,"##/$":9348,"letters":9349,"##linked":9350,"##ificant":9351,"elig":9352,"symp":9353,"photos":9354,"habitat":9355,"##tin":9356,"equivalence":9357,"##pn":9358,"clients":9359,"carrying":9360,"##,2":9361,"permit":9362,"alex":9363,"withdraw":9364,"electrons":9365,"lept":9366,"##erman":9367,"auditory":9368,"musc":9369,"conductivity":9370,"##arian":9371,"##ashi":9372,"mell":9373,"##sectional":9374,"expend":9375,"##6],":9376,"williams":9377,"yielded":9378,"0.000":9379,"implementing":9380,"##lux":9381,"acetate":9382,"##sur":9383,"treating":9384,"bladder":9385,"belonging":9386,"##aryn":9387,"lake":9388,"colour":9389,"alternatively":9390,"moist":9391,"canonical":9392,"##domain":9393,"hybridization":9394,"24.":9395,"igf":9396,"zinc":9397,"border":9398,"lith":9399,"summer":9400,"##-20":9401,"personality":9402,"##.15":9403,"desirable":9404,"sides":9405,"contrac":9406,"discipl":9407,"party":9408,"ischemia":9409,"##through":9410,"ambient":9411,"##anial":9412,"##intestinal":9413,"##-201":9414,"##ohydr":9415,"disturbance":9416,"##aten":9417,"##beit":9418,"##transfer":9419,"ischemic":9420,"bid":9421,"##iffiffiffiff":9422,"##++":9423,"##ferenti":9424,"##<0.0":9425,"voc":9426,"thym":9427,"##plane":9428,"##selec":9429,"taylor":9430,"entirely":9431,"audio":9432,"registration":9433,"exogenous":9434,"methanol":9435,"##:3":9436,"##roscl":9437,"stars":9438,"rarely":9439,"##5],":9440,"[18]":9441,"torque":9442,"##gm":9443,"pj":9444,"hypothesized":9445,"predominantly":9446,"peri":9447,"satur":9448,"asymptotic":9449,"replace":9450,"##anine":9451,"interle":9452,"##tized":9453,"quantify":9454,"recombination":9455,"0.03":9456,"kh":9457,"attachment":9458,",,":9459,"##atase":9460,"ras":9461,"genus":9462,"##ql":9463,"designing":9464,"[15].":9465,"##oclonal":9466,"rectang":9467,"infant":9468,"reaching":9469,"dilution":9470,"(17)":9471,"managers":9472,"meaningful":9473,"##kh":9474,"simplified":9475,"978":9476,"tryp":9477,"dried":9478,"##oresis":9479,"cortic":9480,"##ulsion":9481,"curvature":9482,"thinking":9483,"vegf":9484,"returned":9485,"susceptible":9486,"##romatic":9487,"kda":9488,"filled":9489,"2000,":9490,"trait":9491,"02":9492,"##.12":9493,"##/3":9494,"##glut":9495,"##vo":9496,"##ods":9497,"//":9498,"loaded":9499,"##ryst":9500,"(2005)":9501,"##pread":9502,"(2006)":9503,"##angi":9504,"1994;":9505,"monol":9506,"##dif":9507,"unch":9508,"##atry":9509,"##.(":9510,"1.8":9511,"##sour":9512,"##orectal":9513,"pore":9514,"negligible":9515,"##siveness":9516,"##)}":9517,"scler":9518,"hearing":9519,"pneumonia":9520,"publishing":9521,"##hex":9522,"fox":9523,"xu":9524,"defense":9525,"2013,":9526,"##controlled":9527,"##aga":9528,"universit":9529,"##itely":9530,"##ymmet":9531,"23,":9532,"atmospheric":9533,"##anner":9534,"hsp":9535,"##istribution":9536,"##factor":9537,"soon":9538,"rehabilitation":9539,"sac":9540,"##chemical":9541,"rpm":9542,"medial":9543,"grap":9544,"moves":9545,"2002,":9546,"demonstrating":9547,"combine":9548,"##4+":9549,"125":9550,"perspec":9551,"sure":9552,"xen":9553,"paired":9554,"1998":9555,"##comput":9556,"##bec":9557,"circle":9558,"aw":9559,"##ny":9560,"reform":9561,"opening":9562,"distortion":9563,"volunte":9564,"dj":9565,"axial":9566,"rhyth":9567,"##tise":9568,"104":9569,"chic":9570,"precursor":9571,"−0.":9572,"keeping":9573,"pulses":9574,"##pon":9575,"monte":9576,"carefully":9577,"##auc":9578,"##dose":9579,"deterministic":9580,"emphasis":9581,"workshop":9582,"collision":9583,"letter":9584,"fertil":9585,"##wal":9586,"hoc":9587,"frontal":9588,"##01,":9589,"##ologist":9590,"##ommod":9591,"##usively":9592,"computers":9593,"nos":9594,"attractive":9595,"2003.":9596,"##ende":9597,"elimination":9598,"lapa":9599,"budget":9600,"gew":9601,"##idae":9602,"dex":9603,"##otides":9604,"becoming":9605,"orbit":9606,"venous":9607,"##rc":9608,"expendit":9609,"membership":9610,"bj":9611,"vital":9612,"reaches":9613,"2%":9614,"##rous":9615,"##)+":9616,"##vic":9617,"supers":9618,"infarction":9619,"##recip":9620,"3.0":9621,"scaff":9622,"##ua":9623,"##idespread":9624,"gle":9625,"render":9626,"##oz":9627,"(12":9628,"##inator":9629,"circulating":9630,"gib":9631,"partly":9632,"argued":9633,"##iton":9634,"##osterone":9635,"tai":9636,"##apol":9637,"veter":9638,"mism":9639,"reads":9640,"##version":9641,"benz":9642,"##plo":9643,"condens":9644,"kal":9645,"dogs":9646,"2011.":9647,"anch":9648,"##arith":9649,"##num":9650,"managed":9651,"physiology":9652,"branches":9653,"households":9654,"(2007)":9655,"conversely":9656,"latent":9657,"##mul":9658,"##ela":9659,"posi":9660,"##vae":9661,"(2008)":9662,"hit":9663,"##kle":9664,"shell":9665,"asser":9666,"undert":9667,"money":9668,"enl":9669,"mex":9670,"widespread":9671,"##loc":9672,"8-":9673,"##isson":9674,"delays":9675,"modify":9676,"tends":9677,"0.04":9678,"banks":9679,"atmosphere":9680,"mere":9681,"##oir":9682,"command":9683,"influenza":9684,"##rane":9685,"masses":9686,"##/~":9687,"##bf":9688,"leave":9689,"coch":9690,"dent":9691,"##core":9692,"firstly":9693,"##ru":9694,"really":9695,"chloride":9696,"provider":9697,"gland":9698,"academy":9699,"##ele":9700,"##pone":9701,"style":9702,"##itant":9703,"walking":9704,"##pecific":9705,"thresholds":9706,"##ressed":9707,"tot":9708,"slot":9709,"chick":9710,"atheroscl":9711,"##mut":9712,"##osine":9713,"adoption":9714,"jun":9715,"professionals":9716,"##clinical":9717,"descript":9718,"odds":9719,"intention":9720,"flag":9721,"airway":9722,"vegetation":9723,"johnson":9724,"##ophila":9725,"##mentioned":9726,"dans":9727,"circumstances":9728,"wel":9729,"##isen":9730,"harves":9731,"feasibility":9732,"(2004)":9733,"martin":9734,"##(1−":9735,"##7],":9736,"128":9737,"accommod":9738,"##obil":9739,"teacher":9740,"##bacco":9741,"ratings":9742,"monoclonal":9743,"(18)":9744,"5.4":9745,"clearance":9746,"10−":9747,"##0000":9748,"##osal":9749,"##iry":9750,"##soft":9751,"recruited":9752,"specify":9753,"coating":9754,"adherence":9755,"pathogens":9756,"tuberculosis":9757,"shad":9758,"overlapping":9759,"[16].":9760,"died":9761,"##1.0":9762,"thorough":9763,"##lichen":9764,"##.13":9765,"(2009)":9766,"arthritis":9767,"##benz":9768,"voice":9769,"elong":9770,"1995).":9771,"illum":9772,"##pressing":9773,"covers":9774,"expectation":9775,"driver":9776,"flood":9777,"preventing":9778,"workload":9779,"##11,":9780,"elsewhere":9781,"stiffness":9782,"##she":9783,"peroxid":9784,"##forcement":9785,"night":9786,"eti":9787,"perspectives":9788,"republic":9789,"arrival":9790,"diese":9791,"processors":9792,"##ena":9793,"register":9794,"ministry":9795,"servers":9796,"thanks":9797,"##-17":9798,"##rm":9799,"2000.":9800,"##umar":9801,"5.5":9802,"wurde":9803,"albumin":9804,"0;":9805,"specifications":9806,"neighbors":9807,"activate":9808,"cytoplasmic":9809,"verb":9810,"dominated":9811,"dye":9812,"lb":9813,"schizophrenia":9814,"thomas":9815,"british":9816,"birds":9817,"polymorphism":9818,"discover":9819,"worldwide":9820,"epiderm":9821,"covering":9822,"##prop":9823,"nominal":9824,"unstable":9825,"transportation":9826,"prono":9827,"cooper":9828,"intelligent":9829,"cot":9830,"##relation":9831,"leukemia":9832,"bases":9833,"2002.":9834,"##pend":9835,"abb":9836,"pointed":9837,"cris":9838,"##–6":9839,"##oon":9840,"##only":9841,"[19]":9842,"grants":9843,"provin":9844,"assessments":9845,"healing":9846,"mk":9847,"notably":9848,"attribution":9849,"##tur":9850,"##pop":9851,"spain":9852,"topological":9853,"Θ":9854,"embryonic":9855,"born":9856,"autophag":9857,"##sigma":9858,"hope":9859,"##html":9860,"leakage":9861,"##layer":9862,"##retion":9863,"regeneration":9864,"[2,":9865,"contrad":9866,"##arth":9867,"brought":9868,"ich":9869,"##entia":9870,"belongs":9871,"tubes":9872,"##uclear":9873,"(2003)":9874,"##iden":9875,"sentences":9876,"3(":9877,"##abe":9878,"agriculture":9879,"##ritic":9880,"kv":9881,"tobacco":9882,"suppressed":9883,"simulate":9884,"##brane":9885,"ranking":9886,"##board":9887,"##tn":9888,"maximize":9889,"##otes":9890,"shapes":9891,"sep":9892,"##jk":9893,"##employ":9894,"2012.":9895,"##12,":9896,"oph":9897,"##ostasis":9898,"confound":9899,"##nen":9900,"##assium":9901,"visits":9902,"hypoxia":9903,"pronounced":9904,"permeability":9905,"rewr":9906,"pear":9907,"stake":9908,"2001,":9909,"permut":9910,"indication":9911,"intravenous":9912,"##itoneal":9913,"diffuse":9914,"##stim":9915,"nak":9916,"##inson":9917,"##eman":9918,"26.":9919,"##cription":9920,"collect":9921,"preserv":9922,"differentiated":9923,"violence":9924,"tyrosine":9925,"##supplementary":9926,"##<0.00":9927,"trim":9928,"-2":9929,"passed":9930,"800":9931,"victim":9932,"specimen":9933,"18.":9934,"jobs":9935,"##oline":9936,"alternatives":9937,"##:2":9938,"##300":9939,"pad":9940,"##illus":9941,"gb":9942,"larvae":9943,"##ozygous":9944,"responsibility":9945,"silver":9946,"##psy":9947,"mé":9948,"coal":9949,"##ativity":9950,"purification":9951,"##rip":9952,"apparently":9953,"##opy":9954,"0.05).":9955,"descriptions":9956,"accessible":9957,"chromatin":9958,"tib":9959,"residents":9960,"negoti":9961,"implicated":9962,"evaluations":9963,"kur":9964,"uniqu":9965,"##dig":9966,"##omon":9967,"rigid":9968,"##opo":9969,"junction":9970,"##ophage":9971,"decided":9972,"##being":9973,"ask":9974,"uter":9975,"associate":9976,"zw":9977,"##.3,":9978,"##ahr":9979,"turns":9980,"biomedical":9981,"##acs":9982,"ric":9983,"contamin":9984,"linearly":9985,"excessive":9986,"dé":9987,"calibr":9988,"alg":9989,"##pot":9990,"##kinson":9991,"sten":9992,"linkage":9993,"contraction":9994,"hla":9995,"coherent":9996,"##doc":9997,"##ias":9998,"lec":9999,"metals":10000,"neonatal":10001,"chemicals":10002,"dir":10003,"issn":10004,"navigation":10005,"acta":10006,"perturbation":10007,"possibilities":10008,"##uchi":10009,"lumin":10010,"planar":10011,"loads":10012,"tlr":10013,"preoperative":10014,"##expected":10015,"aligned":10016,"goods":10017,"homogen":10018,"##holders":10019,"crystals":10020,"serves":10021,"nearest":10022,"eeg":10023,"geographic":10024,"immunos":10025,"tell":10026,"contributing":10027,"decade":10028,"dw":10029,"normalization":10030,"shel":10031,"utilizing":10032,"medications":10033,"murine":10034,"##icillin":10035,"emerged":10036,"title":10037,"failures":10038,"##‖2":10039,"cys":10040,"dissem":10041,"##block":10042,"contro":10043,"asymmetric":10044,"perfusion":10045,"searching":10046,"flight":10047,"spherical":10048,"follic":10049,"1/2":10050,"merc":10051,"actu":10052,"zi":10053,"##illa":10054,"accounted":10055,"bern":10056,"hil":10057,"##ör":10058,"bn":10059,"##.3%":10060,"##cale":10061,"breath":10062,"tcp":10063,"balanced":10064,"6)":10065,"motif":10066,"##pdf":10067,"cart":10068,"aper":10069,"contamination":10070,"##-2,":10071,"(2010)":10072,"squares":10073,"##oxin":10074,"melanoma":10075,"substances":10076,"removing":10077,"colony":10078,"vaccination":10079,"transverse":10080,"ineff":10081,"dielectric":10082,"integrating":10083,"funded":10084,"##nam":10085,"##::":10086,"fitted":10087,"fractures":10088,"##static":10089,"[17].":10090,"asian":10091,"##user":10092,"##target":10093,"wheat":10094,"colorectal":10095,"−→":10096,"grand":10097,"markedly":10098,"nond":10099,"##heim":10100,"##jo":10101,"grass":10102,"0.15":10103,"pour":10104,"bridge":10105,"hemorrh":10106,"##((":10107,"hapl":10108,"viable":10109,"⋅":10110,"##.14":10111,"inferior":10112,"phenotypes":10113,"1993;":10114,"ethyl":10115,"bcl":10116,"hcv":10117,"vibr":10118,"insufficient":10119,"architectures":10120,"sphere":10121,"differs":10122,"##–12":10123,"surviv":10124,"analogous":10125,"##elli":10126,"perceptions":10127,"##ript":10128,"##-13":10129,"decide":10130,"4.0":10131,"aggressive":10132,"massive":10133,"grate":10134,"retrieved":10135,"ips":10136,"promotes":10137,"##tral":10138,"stations":10139,"java":10140,"##kel":10141,"sirna":10142,"scans":10143,"extending":10144,"##ancer":10145,"huang":10146,"wider":10147,"soph":10148,"##sensitive":10149,"##hab":10150,"relies":10151,"unchanged":10152,"convenient":10153,"vp":10154,"mission":10155,"breeding":10156,"certainly":10157,"3.1.":10158,"28.":10159,"odd":10160,"##ocytosis":10161,"tk":10162,"autonom":10163,"fec":10164,"analytic":10165,"zones":10166,"cant":10167,"##amer":10168,"##tree":10169,"##ersen":10170,"obese":10171,"binds":10172,"spine":10173,"⊕":10174,"##odal":10175,"##6:":10176,"tv":10177,"(2001)":10178,"##grow":10179,"2001.":10180,"##versal":10181,"og":10182,"moder":10183,"##thing":10184,"##jug":10185,"ultra":10186,"##+2":10187,"fellow":10188,"##ieh":10189,"antigens":10190,"embedding":10191,"approval":10192,"schol":10193,"gps":10194,"##rend":10195,"interrup":10196,"##aled":10197,"exhaus":10198,"##oflu":10199,"##deficient":10200,"occlusion":10201,"mini":10202,"potassium":10203,"##itol":10204,"exem":10205,"##immune":10206,"##zz":10207,"##valu":10208,"participated":10209,"scar":10210,"investigating":10211,"atrial":10212,"##bach":10213,"40%":10214,"optimize":10215,"##fm":10216,"comorb":10217,"loops":10218,"michael":10219,"##energy":10220,"woman":10221,"robots":10222,"##/6":10223,"rk":10224,"supernatant":10225,"hyd":10226,"bub":10227,"##sum":10228,"percept":10229,"##bank":10230,"##sv":10231,"27.":10232,"drinking":10233,"biomarkers":10234,"registered":10235,"##wes":10236,"0.05)":10237,"retained":10238,"observer":10239,"##bled":10240,"stom":10241,"hub":10242,"organism":10243,"##aceae":10244,"dynamical":10245,"kir":10246,"equality":10247,"ken":10248,"malaria":10249,"slowly":10250,"algebraic":10251,"sales":10252,"interacting":10253,"anonym":10254,"receives":10255,"pall":10256,"##8],":10257,"couns":10258,"congen":10259,"(3.1":10260,"saw":10261,"##jected":10262,"divergence":10263,"6.2":10264,"incorporation":10265,"fibroblasts":10266,"##vity":10267,"protease":10268,"counting":10269,"blast":10270,"dependency":10271,"regulating":10272,"sple":10273,"eigenvalues":10274,"cj":10275,"modular":10276,"contacts":10277,"disruption":10278,"willing":10279,"simil":10280,"dich":10281,"french":10282,"dros":10283,"facts":10284,"arising":10285,"generalization":10286,"reductions":10287,"tuning":10288,"considers":10289,"elisa":10290,"answers":10291,"mmp":10292,"##:1":10293,"##human":10294,"solub":10295,"←":10296,"##rophy":10297,"floor":10298,"supra":10299,"traces":10300,"dust":10301,"promoting":10302,"##chi":10303,"##ao":10304,"royal":10305,"kd":10306,"agar":10307,"##paramet":10308,"eastern":10309,"psychiatry":10310,"continues":10311,"##itated":10312,"una":10313,"diffraction":10314,"checked":10315,"distinction":10316,"disj":10317,"unde":10318,"##arged":10319,"natl":10320,"##self":10321,"crack":10322,"̃":10323,"2.1.":10324,"##born":10325,"ix":10326,"cns":10327,"##uvant":10328,"##asty":10329,"contour":10330,"wish":10331,"bif":10332,"exclusively":10333,"constitute":10334,"salmon":10335,"−2":10336,"assumes":10337,"hong":10338,"##steine":10339,"kann":10340,"rup":10341,"##ln":10342,"##actor":10343,"remod":10344,"sort":10345,"benign":10346,"##erent":10347,"strom":10348,"##two":10349,"individually":10350,"##±0.":10351,"##azine":10352,"solely":10353,"snps":10354,"##ilities":10355,"##types":10356,"##bus":10357,"##ville":10358,"regulates":10359,"lh":10360,"axi":10361,"##ario":10362,"descriptive":10363,"employing":10364,"maturation":10365,"tap":10366,"lipids":10367,"enrolled":10368,"140":10369,"correlate":10370,"##metic":10371,"##integr":10372,"ecology":10373,"hon":10374,"hydrophobic":10375,"##-11":10376,"grav":10377,"enabled":10378,"arises":10379,"##div":10380,"ws":10381,"[18].":10382,"sons":10383,"neighboring":10384,"dedicated":10385,"(19)":10386,"##.16":10387,"##cipl":10388,"ange":10389,"checking":10390,"moved":10391,"rows":10392,"parties":10393,"tin":10394,"dementia":10395,"##xj":10396,"(15":10397,"anthrop":10398,"egfr":10399,"corne":10400,"electrophoresis":10401,"##hydrogen":10402,"suic":10403,"courses":10404,"collective":10405,"bb":10406,"(2002)":10407,"##lt":10408,"6:":10409,"sg":10410,"amp":10411,"oxford":10412,"interpolation":10413,"wire":10414,"differed":10415,"2014,":10416,"##rex":10417,"##.3.":10418,"##published":10419,"pregnant":10420,"##tir":10421,"##rences":10422,"##drich":10423,"##bin":10424,"came":10425,"##usting":10426,"##ench":10427,"manually":10428,"pollution":10429,"ago":10430,"dan":10431,"##local":10432,"##ät":10433,"##ymal":10434,"song":10435,"emergence":10436,"##ysiology":10437,"bos":10438,"encountered":10439,"consumed":10440,"logarith":10441,"commitment":10442,"##olysis":10443,"accessed":10444,"##dynam":10445,"stir":10446,"##atit":10447,"creates":10448,"dealing":10449,"2013.":10450,"participating":10451,"[20]":10452,"seek":10453,"civil":10454,"##ér":10455,"erk":10456,"##fron":10457,"##inen":10458,"jet":10459,"transfection":10460,"##idopsis":10461,"akt":10462,"highlighted":10463,"0.0001":10464,"inventory":10465,"##→∞":10466,"conservative":10467,"rj":10468,"strengthen":10469,"pw":10470,"##(−":10471,"landscape":10472,"(1).":10473,"##hle":10474,"ned":10475,"appar":10476,"##list":10477,"einem":10478,"##mentation":10479,"favorable":10480,"spir":10481,"harvested":10482,"mh":10483,"chromosomes":10484,"∅":10485,"1.7":10486,"friends":10487,"streams":10488,"lane":10489,"falls":10490,"sympos":10491,"christ":10492,"chose":10493,"teams":10494,"##vable":10495,"formulas":10496,"##owski":10497,"sulfate":10498,"sugar":10499,"19.":10500,"recommendation":10501,"cores":10502,"iod":10503,"##-01":10504,"##umab":10505,"7.2":10506,"deposited":10507,"comprised":10508,"##lp":10509,"frozen":10510,"soils":10511,"story":10512,"xt":10513,"apoptotic":10514,"inversion":10515,"nb":10516,"deficits":10517,"##mac":10518,"powder":10519,"dissip":10520,"##umb":10521,"[3,":10522,"##icious":10523,"deployment":10524,"##far":10525,"##–7":10526,"##heimer":10527,"##kyo":10528,"##zn":10529,"graduate":10530,"burst":10531,"epithelium":10532,"specialized":10533,"coil":10534,"##lc":10535,"cong":10536,"attenuation":10537,"validate":10538,"##cycl":10539,"louis":10540,"subunits":10541,"fairly":10542,"afford":10543,"gd":10544,"gt":10545,"pca":10546,"granul":10547,"##|2":10548,"##left":10549,"formulated":10550,"fever":10551,"patent":10552,"colonies":10553,"##-3-":10554,"##place":10555,"{1,":10556,"aids":10557,"libraries":10558,"pharmacological":10559,"bag":10560,"xml":10561,"ethnic":10562,"official":10563,"walls":10564,"integrate":10565,"lind":10566,"##imal":10567,"##adequ":10568,"##-18":10569,"lac":10570,"##wall":10571,"##ians":10572,"(2000)":10573,"##iae":10574,"##optimal":10575,"tropical":10576,"establishment":10577,"lf":10578,"forced":10579,"yr":10580,"distress":10581,"(2.":10582,"##pur":10583,"##channel":10584,"unus":10585,"incorporate":10586,"mot":10587,"rms":10588,"youth":10589,"##′-":10590,"##zel":10591,"acetyl":10592,"carriers":10593,"##cb":10594,"##oblast":10595,"legis":10596,"brand":10597,"ü":10598,"##iable":10599,"dk":10600,"##fen":10601,"##iaz":10602,"##overty":10603,"proposal":10604,"tj":10605,"damp":10606,"##istor":10607,"silica":10608,"##–8":10609,"electromagnetic":10610,"##5.0":10611,"##ido":10612,"cognition":10613,"carbohydr":10614,"extends":10615,"##chr":10616,"berg":10617,"magnet":10618,"enabling":10619,"##1−":10620,"##ried":10621,"gf":10622,"ensemble":10623,"deform":10624,"##review":10625,"computations":10626,"dramatically":10627,"ces":10628,"pooled":10629,"##(1):":10630,"##bling":10631,"coherence":10632,"##stud":10633,"##ceptor":10634,"proximity":10635,"signalling":10636,"sought":10637,"owing":10638,"scientists":10639,"thous":10640,"##jan":10641,"(2011)":10642,"uncertainties":10643,"marketing":10644,"##how":10645,"introduces":10646,"##aux":10647,"bath":10648,"##liche":10649,"gets":10650,"70%":10651,"moments":10652,"aust":10653,"miller":10654,"conscious":10655,"##phyl":10656,"28,":10657,"layout":10658,"##-100":10659,"nie":10660,"##eq":10661,"arteries":10662,"preceding":10663,"103":10664,"cone":10665,"gramm":10666,"##-14":10667,"##acht":10668,"##/1":10669,"pressures":10670,"stent":10671,"distinguished":10672,"pitch":10673,"##inge":10674,"##keleton":10675,"dopamine":10676,"enterprise":10677,"osm":10678,"antennas":10679,"##sal":10680,"##orescence":10681,"ue":10682,"##ferential":10683,"infrared":10684,"##ju":10685,"reagent":10686,"determinants":10687,"declare":10688,"district":10689,"1994).":10690,"##ails":10691,"relate":10692,"pose":10693,"##nec":10694,"(1),":10695,"mention":10696,"##site":10697,"spp":10698,"##discipl":10699,"slower":10700,"29.":10701,"doctor":10702,"herb":10703,"xk":10704,"asia":10705,"moisture":10706,"intensities":10707,"##icking":10708,"fungal":10709,"[1],":10710,"##199":10711,"isolate":10712,"patches":10713,"acknowledge":10714,"broadcast":10715,"viscos":10716,"(4.":10717,"arabidopsis":10718,"harvest":10719,"##stricted":10720,"regulator":10721,"##standing":10722,"7:":10723,"100,":10724,"partitioning":10725,"derivation":10726,"advertis":10727,"##tia":10728,"##health":10729,"stands":10730,"hun":10731,"anuscript":10732,"inflation":10733,"##agm":10734,"steel":10735,"opposed":10736,"trivial":10737,"minimizing":10738,"conjunction":10739,"passing":10740,"planned":10741,"developments":10742,"0.12":10743,"motivated":10744,"##cht":10745,"##sky":10746,"vertebr":10747,"hemisp":10748,"unexpected":10749,"##ett":10750,"##/(":10751,"##-1.":10752,"lymphoma":10753,"rol":10754,"tow":10755,"dic":10756,"##2.0":10757,"ordinary":10758,"anesthesia":10759,"drosophila":10760,"episodes":10761,"##appear":10762,"hash":10763,"05":10764,"##amino":10765,"utilize":10766,"##light":10767,"faults":10768,"citi":10769,"walk":10770,"(2012)":10771,"eh":10772,"##weighted":10773,"verbal":10774,"hypoth":10775,"eliminated":10776,"##∗,":10777,"radar":10778,"played":10779,"vox":10780,"hpv":10781,"plaus":10782,"160":10783,"26,":10784,"fractional":10785,"enhancing":10786,"biop":10787,"selectivity":10788,"##gram":10789,"cartil":10790,"##cerol":10791,"housing":10792,"galaxies":10793,"##gin":10794,"formally":10795,"phy":10796,"0.001":10797,"[19].":10798,"1.00":10799,"ek":10800,"##rate":10801,"assets":10802,"##pol":10803,"thr":10804,"scoring":10805,"reporter":10806,"3.2.":10807,"##oderm":10808,"##ação":10809,"seasonal":10810,"allocated":10811,"1997":10812,"##okers":10813,"labour":10814,"vm":10815,"oz":10816,"gaps":10817,"likewise":10818,"destruc":10819,"embryo":10820,"corporation":10821,"2.2.":10822,"corn":10823,"symposium":10824,"sweden":10825,"[21]":10826,"oscillations":10827,"spectrometry":10828,"##pes":10829,"##pson":10830,"dieser":10831,"ej":10832,"street":10833,"##rey":10834,"enzymatic":10835,"##ocor":10836,"rac":10837,"clinicians":10838,"〉":10839,"⎥":10840,"##oside":10841,"donors":10842,"corro":10843,"weather":10844,"gained":10845,"##py":10846,"hplc":10847,"poisson":10848,"sad":10849,"peg":10850,"burn":10851,"drople":10852,"matches":10853,"##9-":10854,"##circ":10855,"2.6":10856,"##utable":10857,"##ilic":10858,"investigators":10859,"jones":10860,"ophthal":10861,"##ochrome":10862,"yam":10863,"industries":10864,"sow":10865,"##index":10866,"##paign":10867,"(20)":10868,"leaving":10869,"##vd":10870,"establishing":10871,"##adap":10872,"##uclide":10873,"##ete":10874,"##break":10875,"##onds":10876,"felt":10877,"metastases":10878,"enriched":10879,"##lock":10880,"##ographs":10881,"cities":10882,"incorrect":10883,"poverty":10884,"endomet":10885,"sustainable":10886,"interior":10887,"##9:":10888,"##iert":10889,"nest":10890,"prescribed":10891,"1992;":10892,"##ophageal":10893,"##ocardi":10894,"coded":10895,"##onn":10896,"##ocarcin":10897,"weakly":10898,"gravity":10899,"kj":10900,"##sey":10901,"dal":10902,"##romy":10903,"preserved":10904,"2015).":10905,"exon":10906,"##green":10907,"##cost":10908,"reservoir":10909,"carlo":10910,"deterior":10911,"hosts":10912,"##1+":10913,"##fin":10914,"ldl":10915,"##fu":10916,"vt":10917,"careg":10918,"pod":10919,"similarities":10920,"electronics":10921,"authentication":10922,"coming":10923,"attitude":10924,"inadequ":10925,"compartment":10926,"##(·":10927,"##ager":10928,"needle":10929,"##én":10930,"zo":10931,"platforms":10932,"##tica":10933,"antis":10934,"##arded":10935,"warr":10936,"nanot":10937,"elabor":10938,"(11":10939,"##roc":10940,"##otomy":10941,"##ilateral":10942,"extinc":10943,"##putation":10944,"military":10945,"vast":10946,"##(0,":10947,"27,":10948,"implantation":10949,"##]).":10950,"anatomical":10951,"glutamate":10952,"cutoff":10953,"refinement":10954,"paid":10955,"ubiquit":10956,"##truct":10957,"hippocampus":10958,"renew":10959,"england":10960,"jack":10961,"##hai":10962,"offic":10963,"supplemental":10964,"##pb":10965,"##nan":10966,"##idation":10967,"enrichment":10968,"reagents":10969,"##change":10970,"nation":10971,"##odic":10972,"correlates":10973,"##figs":10974,"rejection":10975,"##response":10976,"##cou":10977,"cann":10978,"mixtures":10979,"engagement":10980,"diagrams":10981,"excited":10982,"tour":10983,"##0.1":10984,"concom":10985,"25%":10986,"##ticed":10987,"independence":10988,"##anal":10989,"##nings":10990,"deduc":10991,"moral":10992,"cab":10993,"4(":10994,"##________________":10995,"bearing":10996,"emit":10997,"1980":10998,"inspection":10999,"snp":11000,"##shaped":11001,"girls":11002,"microm":11003,"ease":11004,"operated":11005,"duc":11006,"counted":11007,"108":11008,"semicon":11009,"biofil":11010,"brom":11011,"careful":11012,"cytoplasm":11013,"##pal":11014,"hydrolysis":11015,"crude":11016,"recordings":11017,"##cephal":11018,"##otyping":11019,"ky":11020,"##ulent":11021,"##-16":11022,"website":11023,"##pyr":11024,"®":11025,"successive":11026,"12-":11027,"eggs":11028,"##uria":11029,"rearr":11030,"##ran":11031,"##olin":11032,"phyt":11033,"sic":11034,"fun":11035,"shifted":11036,"nasal":11037,"(30":11038,"slices":11039,"polymers":11040,"differentiate":11041,"##ée":11042,"##acin":11043,"capillary":11044,"apparatus":11045,"ket":11046,"##10)":11047,"bell":11048,"##0,000":11049,"splitting":11050,"##ois":11051,"opi":11052,"synth":11053,"biotechnology":11054,"decoding":11055,"##ynchron":11056,"pren":11057,"undertaken":11058,"##base":11059,"##ductor":11060,"epidemiology":11061,"frank":11062,"hn":11063,"##yll":11064,"##fd":11065,"intense":11066,"distant":11067,"(<":11068,"occupational":11069,"##west":11070,"biochem":11071,"imposed":11072,"nutritional":11073,"speaker":11074,"fronti":11075,"[4,":11076,"##lr":11077,"blockin":11078,"##vision":11079,"aberr":11080,"##vian":11081,"hcc":11082,"##dam":11083,"aneur":11084,"cite":11085,"bundle":11086,"extensions":11087,"oncology":11088,"phenotypic":11089,"##ophosph":11090,"exploit":11091,"positioning":11092,"##idad":11093,"kinem":11094,"[20].":11095,"turned":11096,"nu":11097,"batch":11098,"spor":11099,"complication":11100,"nem":11101,"ferm":11102,"broader":11103,"##eterm":11104,"cyst":11105,"graphene":11106,"foods":11107,"aure":11108,"amplitudes":11109,"##erosis":11110,"##utor":11111,"##ysiological":11112,"##ube":11113,"offspring":11114,"##ologie":11115,"annotation":11116,"hay":11117,"histone":11118,"dum":11119,"##atology":11120,"abbreviations":11121,"concomitant":11122,"graphical":11123,"quarter":11124,"##phys":11125,"resting":11126,"1999,":11127,"simulator":11128,"##obi":11129,"##functional":11130,"dialog":11131,"##otrans":11132,"##/200":11133,"francis":11134,"hin":11135,"histopath":11136,"##0.4":11137,"delta":11138,"##lam":11139,"##mode":11140,"prohib":11141,"##gar":11142,"107":11143,"glomer":11144,"prevented":11145,"ers":11146,"irregular":11147,"fails":11148,"31.":11149,"evolved":11150,"switches":11151,"systolic":11152,"##under":11153,"wk":11154,"performances":11155,"transmitter":11156,"reactivity":11157,"disturbances":11158,"##rectional":11159,"communicate":11160,"strand":11161,"##rology":11162,"minute":11163,"outlined":11164,"wrong":11165,"(1999)":11166,"##iciencies":11167,"radiotherapy":11168,"##environ":11169,"managing":11170,"centrifuged":11171,"equals":11172,"pull":11173,"phe":11174,"explains":11175,"##tran":11176,"##icing":11177,"berlin":11178,"scholars":11179,"projections":11180,"reconstructed":11181,"worked":11182,"##ischer":11183,"##dim":11184,"promotion":11185,"2014.":11186,"pent":11187,"exer":11188,"immunol":11189,"funds":11190,"tone":11191,"60%":11192,"dass":11193,"accumulated":11194,"genomes":11195,"glycos":11196,"##isy":11197,"##inine":11198,"nps":11199,"nicot":11200,"leadership":11201,"1999.":11202,"skew":11203,"jed":11204,"subgroups":11205,"##ueh":11206,"inactivation":11207,"##600":11208,"194":11209,"addressing":11210,"gem":11211,"viscosity":11212,"ventilation":11213,"magne":11214,"pun":11215,"ash":11216,"tags":11217,"dendritic":11218,"6.1":11219,"observational":11220,"£":11221,"130":11222,"(“":11223,"ensures":11224,"##lity":11225,"authority":11226,"lamin":11227,"##hyper":11228,"reflex":11229,"spleen":11230,"hippocampal":11231,"microscopic":11232,"stabilization":11233,"##jun":11234,"charges":11235,"multimedia":11236,"kan":11237,"replacing":11238,"sports":11239,"##.2%":11240,"##ocyt":11241,"##400":11242,"##zyme":11243,"narr":11244,"##leg":11245,"anc":11246,"##lung":11247,"antagonist":11248,"pep":11249,"velocities":11250,"ether":11251,"parametric":11252,"##7%)":11253,"differently":11254,"##craft":11255,"immobil":11256,"manifold":11257,"democr":11258,"microarray":11259,"##turing":11260,"histogram":11261,"##atid":11262,"zum":11263,"6.5":11264,"arrangement":11265,"##aca":11266,"aneurys":11267,"got":11268,"blo":11269,"sheet":11270,"enhances":11271,"sophistic":11272,"##-30":11273,"##icin":11274,"chim":11275,"eating":11276,"##run":11277,"##tase":11278,"##6%)":11279,"##worth":11280,"pairwise":11281,"##ante":11282,"autonomous":11283,"##omed":11284,"1995":11285,"gangl":11286,"(1998)":11287,"tar":11288,"neglec":11289,"##hao":11290,"##peg":11291,"03":11292,"waiting":11293,"29,":11294,"admitted":11295,"attend":11296,"biosynthesis":11297,"##enen":11298,"orthop":11299,"triggered":11300,"##lm":11301,"happens":11302,"[22]":11303,"eosin":11304,"##8%)":11305,"xj":11306,"##lat":11307,"signi":11308,"spik":11309,"secondly":11310,"einen":11311,"8:":11312,"##38/":11313,"qos":11314,"sudden":11315,"reflecting":11316,"neighbour":11317,"teeth":11318,"cardiomy":11319,"##án":11320,"bowel":11321,"##artz":11322,"inhal":11323,"sas":11324,"##.25":11325,"(>":11326,"tic":11327,"rated":11328,"sectors":11329,"##kal":11330,"##vector":11331,"wage":11332,"##(5)":11333,"##titude":11334,"##ocytic":11335,"remainder":11336,"practitioners":11337,"taiwan":11338,"##vascular":11339,"phosphor":11340,"##qr":11341,"1996":11342,"neuropath":11343,"##.4,":11344,"##rob":11345,"##emann":11346,"vesicles":11347,"##wick":11348,"##polar":11349,"##reported":11350,"##tk":11351,"clone":11352,"ester":11353,"0.10":11354,"##',":11355,"drift":11356,"envelope":11357,"##generation":11358,"vr":11359,"connecting":11360,"convers":11361,"presumably":11362,"supplementation":11363,"declar":11364,"alz":11365,"differentially":11366,"depressive":11367,"priori":11368,"firing":11369,"updates":11370,"##sci":11371,"##figures":11372,"hamiltonian":11373,"lagr":11374,"doppler":11375,"artifacts":11376,"perceptual":11377,"jc":11378,"##power":11379,"##umor":11380,"##aud":11381,"(21)":11382,"centrifugation":11383,"electricity":11384,"pec":11385,"attempted":11386,"ses":11387,"4%":11388,"predicts":11389,"##correspond":11390,"##quality":11391,"nothing":11392,"chicago":11393,"emotions":11394,"##ixed":11395,"##aver":11396,"injections":11397,"##osion":11398,"##cas":11399,"##/10.1016/":11400,"echocardi":11401,"advice":11402,"bypass":11403,"##nia":11404,"entered":11405,"congestion":11406,"zus":11407,"##:10.10":11408,"ré":11409,"##brain":11410,"contempor":11411,"bf":11412,"retin":11413,"7).":11414,"begins":11415,"##deg":11416,"suspected":11417,"##aeh":11418,"remarkable":11419,"##bul":11420,"##elles":11421,"svm":11422,"##aldehyde":11423,"##sil":11424,"polymorphisms":11425,"chron":11426,"##play":11427,"khz":11428,"##mir":11429,"implementations":11430,"resem":11431,"[21].":11432,"immigr":11433,"abor":11434,"verm":11435,"##ez":11436,"##0.2":11437,"##oden":11438,"[2],":11439,"advers":11440,"##eb":11441,"##iao":11442,"##/10":11443,"##rote":11444,"hepar":11445,"##disciplinary":11446,"1998.":11447,"cascade":11448,"ile":11449,"dynamically":11450,"##zens":11451,"journals":11452,"1998,":11453,"##amycin":11454,"geographical":11455,"plain":11456,"polynomials":11457,"termination":11458,"punc":11459,"prophyl":11460,"preparations":11461,"posts":11462,"sib":11463,"tie":11464,"1970":11465,"wells":11466,"##itch":11467,"relating":11468,"stimulate":11469,"##relevant":11470,"ventral":11471,"08":11472,"segreg":11473,"##oler":11474,"statistic":11475,"##()":11476,"hh":11477,"##umps":11478,"workflow":11479,"102":11480,"vibration":11481,"payment":11482,"##rine":11483,"export":11484,"jj":11485,"##eper":11486,"cytometry":11487,"nag":11488,"prevalent":11489,"unf":11490,"crisis":11491,"conduction":11492,"##:10.1371/":11493,"continuum":11494,"##agulation":11495,"rings":11496,"##oprecip":11497,"##cellular":11498,"stan":11499,"corporate":11500,"gels":11501,"microwave":11502,"abilities":11503,"##ieties":11504,"hir":11505,"touch":11506,"shortest":11507,"cartilage":11508,"relational":11509,"##bits":11510,"##ku":11511,"elementary":11512,"##31.":11513,"##ococ":11514,"noc":11515,"##lang":11516,"##∗)":11517,"vii":11518,"csf":11519,"[5,":11520,"##cient":11521,"curric":11522,"##.17":11523,"transduc":11524,"##su":11525,"vc":11526,"##aphyl":11527,"panels":11528,"rotor":11529,"bran":11530,"##bone":11531,"incremental":11532,"repeti":11533,"award":11534,"##3+":11535,"ionic":11536,"##exper":11537,"gradients":11538,"homeostasis":11539,"matlab":11540,"cath":11541,"[3],":11542,"subspace":11543,"##mu":11544,"##stat":11545,"turnover":11546,"carotid":11547,"##sies":11548,"ecosystem":11549,"##uses":11550,"abstraction":11551,"##uron":11552,"∏":11553,"##pers":11554,"intellect":11555,"##ese":11556,"glu":11557,"averaging":11558,"tokyo":11559,"##phosphate":11560,"agonist":11561,"repos":11562,"##120":11563,"sends":11564,"##chied":11565,"illumination":11566,"routes":11567,"drawback":11568,"engage":11569,"adjusting":11570,"tumours":11571,"femoral":11572,"##*,":11573,"fabrication":11574,"##igan":11575,"##achy":11576,"innovative":11577,"##.20":11578,"##psis":11579,"prevents":11580,"2016;":11581,"##rst":11582,"persistence":11583,"##station":11584,"##mas":11585,"31,":11586,"##plasia":11587,"acquire":11588,"##rank":11589,"visualized":11590,"##ionic":11591,"wen":11592,"##ometh":11593,"arith":11594,"##.1%":11595,"8)":11596,"##azol":11597,"retain":11598,"homolog":11599,"homology":11600,"##cel":11601,"exclude":11602,"iner":11603,"##access":11604,"transduction":11605,"proposes":11606,"##gh":11607,"nurse":11608,"##oscopy":11609,"arms":11610,"campaign":11611,"cit":11612,"debate":11613,"jur":11614,"##-19":11615,"achieves":11616,"physically":11617,"diction":11618,"„":11619,"1991;":11620,"multil":11621,"fort":11622,"personnel":11623,"schema":11624,"##idase":11625,"##akt":11626,"recipients":11627,"incorporating":11628,"##ius":11629,"##parts":11630,"##acryl":11631,"wilson":11632,"##rotein":11633,"##igene":11634,"##uge":11635,"attain":11636,"[4],":11637,"##olean":11638,"trap":11639,"estrogen":11640,"neuroscience":11641,"2;":11642,"projected":11643,"adolescent":11644,"modest":11645,"##ðt":11646,"encryption":11647,"##wis":11648,"lipoprotein":11649,"##/4":11650,"##uclidean":11651,"##gb":11652,"slides":11653,"##tism":11654,"##rile":11655,"##cus":11656,"getting":11657,"translocation":11658,"amph":11659,"mask":11660,"##roy":11661,"⎢":11662,"grouped":11663,"cz":11664,"##zerland":11665,"mirna":11666,"thal":11667,"##oston":11668,"gol":11669,"increment":11670,"##aid":11671,"nih":11672,"primitive":11673,"proxy":11674,"satisfactory":11675,"sucrose":11676,"109":11677,"anderson":11678,"texas":11679,"0.99":11680,"##membrane":11681,"questionnaires":11682,"##aware":11683,"##fund":11684,"regimen":11685,"##(2):":11686,"suffer":11687,"weakness":11688,"mounted":11689,"boot":11690,"##plan":11691,"polys":11692,"absorbance":11693,"accomplished":11694,"contextual":11695,"tooth":11696,"mellitus":11697,"surprisingly":11698,"##iac":11699,"keys":11700,"(2013)":11701,"flor":11702,"mobil":11703,"australian":11704,"##idium":11705,"peers":11706,"##ía":11707,"##prec":11708,"classify":11709,"##ascul":11710,"stresses":11711,"encaps":11712,"reversed":11713,"stores":11714,"penetration":11715,"##izable":11716,"underestim":11717,"##hea":11718,"##organic":11719,"cytotoxic":11720,"dehydrogen":11721,"##ician":11722,"aureus":11723,"nonet":11724,"(13":11725,"37°":11726,"1993).":11727,"executive":11728,"##ender":11729,"hur":11730,"expertise":11731,"inducing":11732,"aeros":11733,"##timate":11734,"slice":11735,"occasion":11736,"ulcer":11737,"##lines":11738,"actors":11739,"lobe":11740,"organis":11741,"translated":11742,"##aire":11743,"##het":11744,"##=0.0":11745,"kw":11746,"##radi":11747,"##valued":11748,"2015,":11749,"worker":11750,"striking":11751,"saliv":11752,"designated":11753,"[23]":11754,"##edy":11755,"strengths":11756,"mab":11757,"jump":11758,"agreed":11759,"advoc":11760,"conject":11761,"monthly":11762,"iu":11763,"din":11764,"##hop":11765,"digestion":11766,"asymmetry":11767,"province":11768,"##heless":11769,"##strand":11770,"supplied":11771,"brid":11772,"js":11773,"classic":11774,"congenital":11775,"roc":11776,"bull":11777,"buck":11778,"##kar":11779,"eligible":11780,"aggregates":11781,"resc":11782,"orbital":11783,"iz":11784,"actively":11785,"portfol":11786,"pretreatment":11787,"oblig":11788,"norms":11789,"##ynthe":11790,"chart":11791,"##rf":11792,"7-":11793,"biophys":11794,"##olecular":11795,"pieces":11796,"##lox":11797,"##.18":11798,"sham":11799,"##iments":11800,"kom":11801,"achievement":11802,"holding":11803,"##angle":11804,"##ylase":11805,"##tific":11806,"##vc":11807,"##chain":11808,"steroid":11809,"systematically":11810,"inferred":11811,"huge":11812,"##.4%":11813,"shed":11814,"pdf":11815,"##eless":11816,"wealth":11817,"interfe":11818,"cw":11819,"ablation":11820,"nonetheless":11821,"finds":11822,"##assem":11823,"multiplex":11824,"spatially":11825,"spike":11826,"passage":11827,"cig":11828,"cutting":11829,"dutch":11830,"##kes":11831,"suggestions":11832,"dissociation":11833,"retic":11834,"cruz":11835,"scored":11836,"generations":11837,"##heit":11838,"##rens":11839,"##gle":11840,"[5],":11841,"conducting":11842,"##1,2":11843,"##onc":11844,"connect":11845,"mood":11846,"##olymer":11847,"##idade":11848,"dens":11849,"autophagy":11850,"eqs":11851,"##(6)":11852,"centered":11853,"paris":11854,"incenti":11855,"##family":11856,"##cells":11857,"∨":11858,"##dist":11859,"##ball":11860,"cloned":11861,"drawing":11862,"cdc":11863,"##ukin":11864,"weaker":11865,"##plements":11866,"##coma":11867,"##etts":11868,"24-":11869,"##system":11870,"piece":11871,"bere":11872,"parasite":11873,"##aments":11874,"##urch":11875,"(22)":11876,"realize":11877,"highlights":11878,"alzheimer":11879,"[22].":11880,"corner":11881,"##(3":11882,"wurden":11883,"developers":11884,"′′":11885,"##teness":11886,"citr":11887,"##density":11888,"##oor":11889,"saturated":11890,"bk":11891,"affili":11892,"⇒":11893,"horizon":11894,"cue":11895,"##ogle":11896,"##berts":11897,"Ø":11898,"attenuated":11899,"##uler":11900,"##ea":11901,"zer":11902,"##dn":11903,"phosphatase":11904,"(3.":11905,"switzerland":11906,"hypertroph":11907,"microorgan":11908,"apical":11909,"fits":11910,"##square":11911,"##ensin":11912,"friction":11913,"pts":11914,"##0.3":11915,"accession":11916,"##illi":11917,"##platin":11918,"coarse":11919,"[6,":11920,"stain":11921,"proportions":11922,"schematic":11923,"(195":11924,"plasticity":11925,"iff":11926,"2.7":11927,"analges":11928,"##coming":11929,"##apses":11930,"##ener":11931,"##isor":11932,"##ston":11933,"agencies":11934,"##conjug":11935,"##were":11936,"lives":11937,"coated":11938,"fb":11939,"capacitance":11940,"cytotoxicity":11941,"##tb":11942,"##real":11943,"##mor":11944,"##ermark":11945,"unemploy":11946,"##inin":11947,"angiogenesis":11948,"##arti":11949,"##invasive":11950,"##nit":11951,"james":11952,"##erk":11953,"##iph":11954,"soy":11955,"epilepsy":11956,"multiplication":11957,"richard":11958,"(25":11959,"constructing":11960,"fragmentation":11961,"heavily":11962,"weighting":11963,"shorten":11964,"##edge":11965,"##enger":11966,"kingdom":11967,"pigs":11968,"somatic":11969,"learners":11970,"7.3":11971,"##astolic":11972,"wavegu":11973,"restoration":11974,"##cho":11975,"glycol":11976,"oligonucle":11977,"fly":11978,"##jp":11979,"immer":11980,"discusses":11981,"##anda":11982,"alumin":11983,"infiltration":11984,"shares":11985,"modulus":11986,"isoforms":11987,"vice":11988,"pole":11989,"##role":11990,"beads":11991,"##plus":11992,"##porters":11993,"bile":11994,"resolve":11995,"nac":11996,"seeking":11997,"##uel":11998,"klin":11999,"pros":12000,"god":12001,"autoimmune":12002,"euclidean":12003,"imper":12004,"syntax":12005,"##fo":12006,"(14":12007,"fifth":12008,"raman":12009,"{0,":12010,"6.3":12011,"avoidance":12012,"wm":12013,"##forming":12014,"##atinine":12015,"##okes":12016,"basin":12017,"##molecular":12018,"##uy":12019,"mono":12020,"##heng":12021,"dox":12022,"robert":12023,"##rna":12024,"erent":12025,"taxa":12026,"##ichia":12027,"circles":12028,"subcutaneous":12029,"iran":12030,"era":12031,"triangle":12032,"¬":12033,"drivers":12034,"[6],":12035,"(2),":12036,"##ulators":12037,"exploring":12038,"biochemistry":12039,"annealing":12040,"##fied":12041,"savings":12042,"##prints":12043,"chond":12044,"wear":12045,"::":12046,"##analy":12047,"echo":12048,"institutes":12049,"##”)":12050,"5.0":12051,"avoided":12052,"hands":12053,"mirnas":12054,"2.8":12055,"##feld":12056,"##nic":12057,"extinction":12058,"##ensen":12059,"synchronous":12060,"lecture":12061,"definite":12062,"conditioning":12063,"boolean":12064,"kol":12065,"##.19":12066,"mediate":12067,"3),":12068,"solv":12069,"##arity":12070,"director":12071,"bear":12072,"##pendicular":12073,"neoplas":12074,"continuity":12075,"##lection":12076,"mechanics":12077,"patienten":12078,"mary":12079,"helped":12080,"##5:":12081,"##+(":12082,"outbreak":12083,"04":12084,"(2,":12085,"portal":12086,"15%":12087,"modulated":12088,"sophisticated":12089,"intest":12090,"minimization":12091,"clark":12092,"classroom":12093,"snap":12094,"##first":12095,"##his":12096,"##long":12097,"approximated":12098,"reuse":12099,"(1997)":12100,"##ophilic":12101,"merely":12102,"install":12103,"symptomatic":12104,"##aul":12105,"plug":12106,"crim":12107,"«":12108,"##anging":12109,"biosci":12110,"weekly":12111,"1997,":12112,"ew":12113,"juven":12114,"lineage":12115,"electroly":12116,"193":12117,"aircraft":12118,"##gas":12119,"##];":12120,"formulations":12121,"##develop":12122,"##lv":12123,"fabricated":12124,"volunteers":12125,"holes":12126,"exit":12127,"##accharide":12128,"2015.":12129,"plasmids":12130,"##1.4":12131,"##rac":12132,"##omeric":12133,"##idents":12134,"##orf":12135,"mang":12136,"##dic":12137,"theoretically":12138,"(2).":12139,"filtration":12140,"##mus":12141,"tier":12142,"metaph":12143,"vulnerable":12144,"##acerb":12145,"##aldrich":12146,"closest":12147,"percentages":12148,"##chip":12149,"spacing":12150,"indirectly":12151,"realization":12152,"print":12153,"edition":12154,"microtub":12155,"reversible":12156,"wnt":12157,"##sitivity":12158,"cylind":12159,"deployed":12160,"1.9":12161,"pes":12162,"##jective":12163,"knockdown":12164,"uncom":12165,"diam":12166,"sorting":12167,"##ders":12168,"##report":12169,"inhibiting":12170,"##bow":12171,"kinases":12172,"gait":12173,")2":12174,"retail":12175,"converges":12176,"##geal":12177,"signatures":12178,"[24]":12179,"redox":12180,"##bell":12181,"kong":12182,"asset":12183,"##bia":12184,"runtime":12185,"##beta":12186,"regulations":12187,"##fish":12188,"##ship":12189,"##condition":12190,"[(":12191,"disag":12192,"pacific":12193,"pathogenic":12194,"##adjusted":12195,"32.":12196,"camer":12197,"subtypes":12198,"trying":12199,"[23].":12200,"comprising":12201,"administrative":12202,"##3.0":12203,"1990;":12204,"inadequate":12205,"favour":12206,"pathoph":12207,"##rian":12208,"bonding":12209,"##rez":12210,"##viral":12211,"dimer":12212,"behavioural":12213,"hear":12214,"gyr":12215,"screened":12216,"##standard":12217,"polyg":12218,"##represent":12219,"##orge":12220,"##alpha":12221,"##los":12222,"mirror":12223,"3.6":12224,"##coprotein":12225,"foss":12226,"unusual":12227,"1997.":12228,"[7],":12229,"totally":12230,"##uda":12231,"##veolar":12232,"disappear":12233,"##itic":12234,"exacerb":12235,"breakdown":12236,"##ausal":12237,"##8:":12238,"suit":12239,"zhou":12240,"thoracic":12241,"synthase":12242,"##aton":12243,"##~~":12244,"submit":12245,"##ipping":12246,"stenosis":12247,"##aya":12248,"amyloid":12249,"sag":12250,"##amming":12251,"##contin":12252,"##imp":12253,"instantaneous":12254,"fungi":12255,"purely":12256,"7)":12257,"mari":12258,"accelerated":12259,"9:":12260,"graphics":12261,"##··":12262,"gyn":12263,"boston":12264,"broken":12265,"##iee":12266,"sepsis":12267,"##9%)":12268,"relapse":12269,"##athetic":12270,"harmon":12271,"recursive":12272,"mountain":12273,"##rier":12274,"1⁄2":12275,"phospholip":12276,"mast":12277,"##compass":12278,"augmented":12279,"##enin":12280,"perpendicular":12281,"##ilation":12282,"30-":12283,"backward":12284,"anomalies":12285,"books":12286,"reserve":12287,"farmers":12288,"cav":12289,"intellectual":12290,"(23)":12291,"comprises":12292,"simpler":12293,"corrections":12294,"telec":12295,"##cad":12296,"aga":12297,"noisy":12298,"##−1.":12299,"volunt":12300,"licens":12301,"biased":12302,"##mass":12303,"junc":12304,"adjuvant":12305,"anaesthe":12306,"##(1),":12307,"tended":12308,"inequalities":12309,"gaba":12310,"neutrophils":12311,"effector":12312,"critically":12313,"diets":12314,"linking":12315,"resonant":12316,"##csf":12317,"pus":12318,"##20,":12319,"##xr":12320,"##xl":12321,"+1":12322,"analyse":12323,"sterile":12324,"##drug":12325,"##nah":12326,"edta":12327,"vent":12328,"##multi":12329,"##iferase":12330,"county":12331,"discrepancy":12332,"amin":12333,"termed":12334,"flash":12335,"severely":12336,"spots":12337,"redundant":12338,"conjugate":12339,"06":12340,"dosage":12341,"adipose":12342,"##tifs":12343,"ready":12344,"nitric":12345,"snow":12346,"{(":12347,"##learning":12348,"6.4":12349,"mucosa":12350,"##phenyl":12351,"toxin":12352,"##ece":12353,"##gest":12354,"##var":12355,"##ité":12356,"yielding":12357,"##spe":12358,"sz":12359,"lifest":12360,"surgeons":12361,"##borne":12362,"3%":12363,"##uns":12364,"cattle":12365,"inconsistent":12366,"governance":12367,"athle":12368,"identifies":12369,"generators":12370,"debt":12371,"##plasty":12372,"##ietic":12373,"0.001).":12374,"chair":12375,"qui":12376,"psychos":12377,"abd":12378,"parkinson":12379,"divide":12380,"deficit":12381,"explanations":12382,"##americ":12383,"##nut":12384,"compares":12385,"##sf":12386,"##neu":12387,"vom":12388,"##ijing":12389,"nutrients":12390,"##don":12391,"determinant":12392,"encompass":12393,"##ventive":12394,"dmso":12395,"##otics":12396,"plausible":12397,"cytochrome":12398,"powers":12399,"classifiers":12400,"observing":12401,"##unch":12402,"phag":12403,"speaking":12404,"dramatic":12405,"permitted":12406,"##rael":12407,"vig":12408,"##ilst":12409,"depri":12410,"##ichen":12411,"mammals":12412,"says":12413,"neuropsych":12414,"demonstration":12415,"##adata":12416,"jl":12417,"##ynaptic":12418,"bent":12419,"iq":12420,"automation":12421,"degeneration":12422,"microbiology":12423,"senior":12424,"wavelengths":12425,"insert":12426,"##contr":12427,"jah":12428,"##acles":12429,"##rid":12430,"##+/":12431,"cyan":12432,"euk":12433,"##än":12434,"fle":12435,"ao":12436,"vn":12437,"##total":12438,"trib":12439,"aromatic":12440,"seemed":12441,"avoiding":12442,"auxiliary":12443,"inactive":12444,"##period":12445,"intram":12446,"noch":12447,"arithmetic":12448,"##via":12449,"##cur":12450,"transparent":12451,"tried":12452,"1992).":12453,"canadian":12454,"##hf":12455,"fk":12456,"documentation":12457,"##perfusion":12458,"pict":12459,"##aryngeal":12460,"shadow":12461,"premature":12462,"til":12463,"pharmacokine":12464,"##plates":12465,"##pg":12466,"##dop":12467,"##sem":12468,"##athione":12469,"75%":12470,"0.1%":12471,"humidity":12472,"proto":12473,"##hb":12474,"hans":12475,"diarr":12476,"emb":12477,"jose":12478,"embol":12479,"atherosclerosis":12480,"boy":12481,"religious":12482,"insect":12483,"##entive":12484,"(~":12485,"fan":12486,"##expression":12487,"##.22":12488,"trich":12489,"##stone":12490,"remodeling":12491,"gg":12492,"incentives":12493,"##appropri":12494,"##4.0":12495,"perfor":12496,"amplifier":12497,"thirty":12498,"meanwhile":12499,"methodological":12500,"##elson":12501,"gather":12502,"joints":12503,"converge":12504,"astr":12505,"[7,":12506,"##6.0":12507,"fertility":12508,"nitrate":12509,"perc":12510,"##ums":12511,"lid":12512,"lesser":12513,"forests":12514,"##oxic":12515,"untersuch":12516,"raise":12517,"##conduc":12518,"vaccines":12519,"##affected":12520,"lungs":12521,"##carbon":12522,"##aved":12523,"convolution":12524,"##0.8":12525,"quark":12526,"##osphere":12527,"##necess":12528,"##inely":12529,"crossing":12530,"selectively":12531,"scaled":12532,"nv":12533,"competence":12534,"happen":12535,"̈":12536,"(1996)":12537,"##may":12538,"nucleic":12539,"##kov":12540,"gst":12541,"leader":12542,"collecting":12543,"##half":12544,"heparin":12545,"implants":12546,"plaque":12547,"350":12548,"adenocarcin":12549,"genet":12550,"researcher":12551,"[24].":12552,"(2014)":12553,"##agent":12554,"innate":12555,"dialysis":12556,"0.06":12557,"confocal":12558,"##vir":12559,"##both":12560,"##balance":12561,"##bean":12562,"copd":12563,"##aterials":12564,"##invitrogen":12565,"exceeds":12566,"controllers":12567,"##four":12568,"07":12569,"initiative":12570,"rupture":12571,"##lycer":12572,"sche":12573,"boost":12574,"2016,":12575,"fasting":12576,"interleukin":12577,"gaz":12578,"conductance":12579,"danger":12580,"##iest":12581,"discourse":12582,"eigenvalue":12583,"â":12584,"##enic":12585,"##bio":12586,"##fn":12587,"##'-":12588,"##ups":12589,"combinator":12590,"##2.5":12591,"escher":12592,"dehydrogenase":12593,"afore":12594,"##inescence":12595,"immunobl":12596,"##bour":12597,"alph":12598,"planes":12599,"waveform":12600,"transfusion":12601,"phosphorylated":12602,"kill":12603,"commercially":12604,"buy":12605,"##trivial":12606,"##13,":12607,"##15,":12608,"##5.00":12609,"contemporary":12610,"clarify":12611,"dcs":12612,"canal":12613,"##oxygen":12614,"##identif":12615,"##/10.10":12616,"lexical":12617,")]":12618,"hdl":12619,"stakeholders":12620,"pyl":12621,"categorized":12622,"penalty":12623,"probable":12624,"boys":12625,"kp":12626,"creatinine":12627,"voltages":12628,"##offs":12629,"eds":12630,"##ocon":12631,"bioin":12632,"zhao":12633,"herein":12634,"readers":12635,"■":12636,"[8],":12637,"[25]":12638,"##nat":12639,"nin":12640,"styl":12641,"bipolar":12642,"kt":12643,"synerg":12644,"115":12645,"##accur":12646,"unrelated":12647,"##–20":12648,"guarantees":12649,"virtually":12650,"sick":12651,"bw":12652,"zhu":12653,"##ocket":12654,"##sover":12655,"cohen":12656,"influencing":12657,"modulate":12658,"##alt":12659,"rainfall":12660,"##ayers":12661,"talk":12662,"##opor":12663,"(18":12664,"##ania":12665,"obstruction":12666,"expenditure":12667,"eukary":12668,"gil":12669,"##opoietic":12670,"##uster":12671,"##rb":12672,"mucosal":12673,"zwe":12674,"sacr":12675,"(-":12676,"##ecs":12677,"aort":12678,"hed":12679,"vulnerability":12680,"minority":12681,"neutr":12682,"##output":12683,"##versi":12684,"dividing":12685,"nested":12686,"resin":12687,"wing":12688,"incoming":12689,"....":12690,"(24)":12691,"++":12692,"1996.":12693,"stic":12694,"##performance":12695,"equity":12696,"sliding":12697,"modalities":12698,"##hp":12699,"arrows":12700,"##−→":12701,"##iop":12702,"justice":12703,"problematic":12704,"observable":12705,"##01.":12706,"0.14":12707,"execute":12708,"(2008).":12709,"hemoglobin":12710,"unrestricted":12711,"emphasize":12712,"epidemiological":12713,"pipeline":12714,"obstruc":12715,"##speed":12716,"endoscopic":12717,"immunosup":12718,"##eps":12719,"wheel":12720,"1996,":12721,"colors":12722,"freely":12723,"spirit":12724,"0.13":12725,"substituting":12726,"whilst":12727,"eleg":12728,"jp":12729,"ensuring":12730,"ownership":12731,"mismatch":12732,"globally":12733,"immunore":12734,"explor":12735,"rotational":12736,"##1|":12737,"referen":12738,"macrophage":12739,"wrote":12740,"operative":12741,"##earch":12742,"##vt":12743,"deeper":12744,"##law":12745,"optic":12746,"kel":12747,"pubmed":12748,"summarizes":12749,"##pubmed":12750,"withdrawal":12751,"granular":12752,"guided":12753,"summarize":12754,"ward":12755,"ferr":12756,"##shift":12757,"##operatively":12758,"##noise":12759,"crops":12760,"##source":12761,"##aret":12762,"davis":12763,"##sile":12764,"escherichia":12765,"vapor":12766,"critic":12767,"redistribution":12768,"##paired":12769,"recipient":12770,"33.":12771,"##ulo":12772,"preservation":12773,"comfort":12774,"pricing":12775,"[8,":12776,"munic":12777,"700":12778,"grey":12779,"2.3.":12780,"facilitates":12781,"meat":12782,"usefulness":12783,"09":12784,"##coated":12785,"##serv":12786,"seizures":12787,"(2007).":12788,"hormones":12789,"##igt":12790,"asymptomatic":12791,"##schen":12792,"##cycle":12793,"duct":12794,"##21/":12795,"jiang":12796,"diagnoses":12797,"anatomy":12798,"##iser":12799,"[40":12800,"extrapol":12801,"(1.":12802,"aforementioned":12803,"alteration":12804,"##ymmetric":12805,"adds":12806,"disclosure":12807,"drainage":12808,"smokers":12809,"##ospor":12810,"gdp":12811,"##abolic":12812,"asynchron":12813,"cac":12814,"tau":12815,"standing":12816,"##ohl":12817,"##!.":12818,"dub":12819,"(2006).":12820,"##gebras":12821,"motifs":12822,"##0.9":12823,"univariate":12824,"revenue":12825,"##wend":12826,"##tilled":12827,"dissection":12828,"restrict":12829,"##ignificant":12830,"coordinated":12831,"##design":12832,"##virus":12833,"acidic":12834,"alkaline":12835,"metadata":12836,"##zu":12837,"locom":12838,"homologous":12839,"mmhg":12840,"gastroenter":12841,"eps":12842,"checks":12843,"axes":12844,"##21,":12845,"preserve":12846,"hus":12847,"##rox":12848,"##14,":12849,"secreted":12850,"̧":12851,"filling":12852,"##7.0":12853,"fading":12854,"##determ":12855,"generality":12856,"##–11":12857,"notch":12858,"##–15":12859,"mouth":12860,"##4(":12861,"##ason":12862,"nitro":12863,"##cemia":12864,"(2009).":12865,"##tance":12866,"##depend":12867,"outline":12868,"0.001)":12869,"(2005).":12870,"noting":12871,"##ocular":12872,"adrenal":12873,"conformational":12874,"##uer":12875,"##tier":12876,"##tium":12877,"ecg":12878,"responded":12879,"rrna":12880,"##iol":12881,"chromosomal":12882,"permutation":12883,"##termin":12884,"##\".":12885,"encode":12886,"scatter":12887,"registry":12888,"##structured":12889,"reinfor":12890,"installed":12891,"##-00":12892,"##frame":12893,"##kk":12894,"##opol":12895,"##ether":12896,"entering":12897,"##ofluorescence":12898,"ccr":12899,"remarks":12900,"piv":12901,"encourage":12902,"suspended":12903,"islands":12904,"mist":12905,"##luc":12906,"##ensch":12907,"0.11":12908,"sending":12909,"[9],":12910,"kil":12911,"##nik":12912,"2/":12913,"temporary":12914,"glutathione":12915,"volatility":12916,"counterparts":12917,"liv":12918,"omitted":12919,"##pat":12920,"coastal":12921,"download":12922,"bootstr":12923,"exempl":12924,"##–[":12925,"cloning":12926,"declared":12927,"oo":12928,"mexico":12929,"cass":12930,"##parametric":12931,"##(3):":12932,"sequenced":12933,"anaer":12934,"molar":12935,"(1995)":12936,"##ais":12937,"##uscular":12938,"epigene":12939,"chir":12940,"regulators":12941,"mhc":12942,"infect":12943,"rendering":12944,"##:10.1016/":12945,"hap":12946,"translational":12947,"##earing":12948,"diminished":12949,"##112":12950,"analyzer":12951,"##mel":12952,"##oplastic":12953,"rose":12954,"##ommen":12955,"##itate":12956,"motility":12957,"##×10":12958,"traditionally":12959,"##seq":12960,"##zw":12961,"retina":12962,"[25].":12963,"##.23":12964,"##onto":12965,"##tag":12966,"sto":12967,"##ynthetic":12968,"truncated":12969,"networking":12970,"phenyl":12971,"proofs":12972,"##enia":12973,"combines":12974,"serot":12975,"drops":12976,"##ochrom":12977,"sera":12978,"supposed":12979,"spreading":12980,"speeds":12981,"guaranteed":12982,"pyram":12983,"##uls":12984,"kre":12985,"##vm":12986,"edema":12987,"chl":12988,"0.16":12989,"##cz":12990,"examinations":12991,"opinions":12992,"outper":12993,"mening":12994,"##blast":12995,"##instit":12996,"1995.":12997,"spanish":12998,"institut":12999,"##random":13000,"branching":13001,"monocytes":13002,"pearson":13003,"##tu":13004,"israel":13005,"nal":13006,"tong":13007,"threads":13008,"##omonas":13009,"grateful":13010,"fibrin":13011,"couple":13012,"acknowledgment":13013,"citizens":13014,"##university":13015,"978-1":13016,"##achus":13017,"balancing":13018,"folding":13019,"interacts":13020,"##ention":13021,"suited":13022,"lysis":13023,"lis":13024,"detectors":13025,"resusp":13026,"##berger":13027,"trading":13028,"monetary":13029,"engaged":13030,"scheduled":13031,"##isters":13032,"sheep":13033,"symbolic":13034,"qt":13035,"pie":13036,"dropped":13037,"mehr":13038,"10:":13039,"##cine":13040,"pictures":13041,"##imeter":13042,"sevent":13043,"socioeconomic":13044,"glycerol":13045,"34.":13046,"##about":13047,"prey":13048,"##reprene":13049,"dictionary":13050,"cel":13051,"peter":13052,"##gap":13053,"192":13054,"dun":13055,"santa":13056,"bare":13057,"confined":13058,"responding":13059,"requested":13060,"50,":13061,"viewing":13062,"##sson":13063,"fried":13064,"blotting":13065,"##rab":13066,"searches":13067,"##tensive":13068,"landmark":13069,"hart":13070,"dominance":13071,"desire":13072,"##utter":13073,"terti":13074,"till":13075,"##kd":13076,"lect":13077,"push":13078,"jacob":13079,"mutagen":13080,"rhythm":13081,"prepare":13082,"##inos":13083,"##xs":13084,"##ando":13085,"genetically":13086,"transporter":13087,"lj":13088,"catch":13089,"¡":13090,"##orer":13091,"grains":13092,"111":13093,"feb":13094,"suite":13095,"noticed":13096,"oncol":13097,"##also":13098,"intestine":13099,"129":13100,"##echanical":13101,"##bild":13102,"##opathic":13103,"fluids":13104,"##-25":13105,"explaining":13106,"##anges":13107,"##amous":13108,"indications":13109,"##expl":13110,"##joy":13111,"municip":13112,"eines":13113,"[26]":13114,"cohorts":13115,"##.24":13116,"##wang":13117,"incentive":13118,"##8/":13119,"hbv":13120,"##approxim":13121,"(2010).":13122,"##ulos":13123,"##assay":13124,"##onectin":13125,"constitutes":13126,"disjoint":13127,"å":13128,"(25)":13129,"laparoscopic":13130,"quin":13131,"##transferase":13132,"##ichi":13133,"1}":13134,"confirms":13135,"(2004).":13136,"##aints":13137,"microorganisms":13138,"pigment":13139,"rheumat":13140,"##.21":13141,"methodologies":13142,"helic":13143,"infiltr":13144,"luciferase":13145,"##eties":13146,"expanding":13147,"##-22":13148,"pollen":13149,"##odon":13150,"evoked":13151,"hk":13152,"##name":13153,"##reat":13154,"departments":13155,"maize":13156,"microbiol":13157,"suffering":13158,"(3).":13159,"##wind":13160,"##cox":13161,"##erating":13162,"atyp":13163,"##uki":13164,"0.75":13165,"integers":13166,"oscillation":13167,"cycling":13168,"##una":13169,"35.":13170,"##inery":13171,"allevi":13172,"##ailing":13173,"aliqu":13174,"##best":13175,"##ieren":13176,"mü":13177,"positioned":13178,"appropriately":13179,"ua":13180,"consol":13181,"jul":13182,"hemorrhage":13183,"universities":13184,"predicate":13185,"##small":13186,"##acetyl":13187,"hv":13188,"leaders":13189,"enum":13190,"3.3.":13191,"comorbid":13192,"vocab":13193,"802":13194,"##,(":13195,"telephone":13196,"congr":13197,"impulse":13198,"updating":13199,"crossover":13200,"earnings":13201,"organisation":13202,"[9":13203,"spectrometer":13204,"##eno":13205,"##:10":13206,"zeit":13207,"##calc":13208,"##cession":13209,"surfact":13210,"dq":13211,"##tisol":13212,"electrochemical":13213,"applicability":13214,"##etz":13215,"friend":13216,"informal":13217,"(0.0":13218,"dispar":13219,"##nb":13220,"simplify":13221,"anom":13222,"190":13223,"idi":13224,"##tel":13225,"sket":13226,"beijing":13227,"knockout":13228,"covariates":13229,"∣∣∣∣":13230,"refined":13231,"exposures":13232,"xy":13233,"mating":13234,"##cv":13235,"carol":13236,"rw":13237,"redundancy":13238,"1994":13239,"biod":13240,"spons":13241,"bold":13242,"##note":13243,"unity":13244,"shocks":13245,"parasites":13246,"destruction":13247,"##imb":13248,"′)":13249,"preventive":13250,"##hour":13251,"##iques":13252,"0.18":13253,"convert":13254,"##uthor":13255,"forth":13256,"collections":13257,"printed":13258,"vaginal":13259,"dipole":13260,"trache":13261,"speakers":13262,"profiling":13263,"collapse":13264,"texts":13265,"##ieder":13266,"[9,":13267,"lanc":13268,"stopped":13269,"cirrh":13270,"subsection":13271,"numerically":13272,"tand":13273,"##amus":13274,"crc":13275,"thrombosis":13276,"basically":13277,"ionization":13278,"unnecess":13279,"surgeon":13280,"functionally":13281,"##8.0":13282,"ocular":13283,"36.":13284,"##isse":13285,"##when":13286,"##existing":13287,"gan":13288,"50-":13289,"entreprene":13290,"metam":13291,"##luent":13292,"edited":13293,"exploited":13294,"##ambig":13295,"pelle":13296,"contradiction":13297,"coping":13298,"upregulated":13299,"descriptors":13300,"8).":13301,"allen":13302,"spss":13303,"##rically":13304,"(16":13305,"assembl":13306,"xp":13307,"##omat":13308,"1995,":13309,"##atitude":13310,"georg":13311,"##(2,":13312,"fluxes":13313,"thereafter":13314,"##.33":13315,"convention":13316,"continuing":13317,"motions":13318,"identifier":13319,"##variant":13320,"##oulder":13321,"hypothal":13322,"bending":13323,"capacitor":13324,"##==":13325,"exponentially":13326,"affective":13327,"ict":13328,"##yan":13329,"playing":13330,"##opter":13331,"1989;":13332,"computationally":13333,"subtype":13334,"##rophot":13335,"survivors":13336,"##uning":13337,"justif":13338,"##luor":13339,"##bolic":13340,"sink":13341,"##uter":13342,"estr":13343,"##achusetts":13344,"##ocyan":13345,"##conjugated":13346,"##code":13347,"codon":13348,"##loss":13349,"##ankton":13350,"##image":13351,"perturbations":13352,"##:10.11":13353,"ton":13354,"approximations":13355,"haben":13356,"##plos":13357,"leptin":13358,"antit":13359,"##burgh":13360,"1991).":13361,"aq":13362,"##rupt":13363,"career":13364,"fee":13365,"rearrang":13366,"##lar":13367,"mda":13368,"escape":13369,"activating":13370,"##ophyll":13371,"peroxidase":13372,"amongst":13373,"repeats":13374,"watermark":13375,"##hedral":13376,"jh":13377,"##disc":13378,"lifestyle":13379,"##nnen":13380,"xyl":13381,"urea":13382,"cyclin":13383,"[10],":13384,"relates":13385,"##prom":13386,"google":13387,"dependencies":13388,"compensate":13389,"promoted":13390,"precursors":13391,"##idirectional":13392,"reactor":13393,"immunoprecip":13394,"percenti":13395,"leuc":13396,"categorical":13397,"seh":13398,"##phy":13399,"[26].":13400,"##black":13401,"conditioned":13402,"denti":13403,"7→":13404,"cash":13405,"ents":13406,"stark":13407,"strings":13408,"instrum":13409,"stomach":13410,"diastolic":13411,"##phen":13412,"##graduate":13413,"##otensin":13414,"dup":13415,"-0.0":13416,"##keys":13417,"fj":13418,"api":13419,"porous":13420,"##compon":13421,"editing":13422,"routinely":13423,"##ague":13424,"spite":13425,"scattered":13426,"20-":13427,"scaffold":13428,"##number":13429,"tok":13430,"ys":13431,"##hcl":13432,"##sided":13433,"»":13434,"##theore":13435,"grammar":13436,"labelled":13437,"unpublished":13438,"occupied":13439,"regimes":13440,"-3":13441,"computes":13442,"(4.1":13443,"locate":13444,"encodes":13445,"save":13446,"ignored":13447,"utter":13448,"brack":13449,"chiral":13450,"##ðx":13451,"perfectly":13452,"##white":13453,"##TM":13454,"inverted":13455,"gmbh":13456,"##anta":13457,"40.":13458,"transpl":13459,"dermat":13460,"suicide":13461,"indicative":13462,"adequately":13463,"microgl":13464,"##dg":13465,"##enth":13466,"unw":13467,"dashed":13468,"##vie":13469,"obl":13470,"##phot":13471,"breaking":13472,"##uitary":13473,"##%;":13474,"sehr":13475,"dap":13476,"##micro":13477,"##1⁄2":13478,"photons":13479,"judgment":13480,"123":13481,"##-23":13482,"angel":13483,"excluding":13484,"hors":13485,"##avirus":13486,"##dynamic":13487,"##----------------":13488,"endocrine":13489,"##pack":13490,"wein":13491,"worm":13492,"succeed":13493,"ranked":13494,"shallow":13495,"##baum":13496,"exclusive":13497,"##16,":13498,"degraded":13499,"activates":13500,"##directed":13501,"##coding":13502,"##5/":13503,"##aded":13504,"portions":13505,"scholar":13506,"intersti":13507,"subtle":13508,"drought":13509,"syntactic":13510,"##hrt":13511,"graf":13512,"dz":13513,"inspired":13514,"(2003).":13515,"##blue":13516,"##agul":13517,"##otropy":13518,"##itos":13519,"reasonably":13520,"sect":13521,"##cant":13522,"ship":13523,"sell":13524,"signed":13525,"carboxyl":13526,"electrostatic":13527,"##poly":13528,"ours":13529,"excretion":13530,"##iration":13531,"##oi":13532,"wc":13533,"curriculum":13534,"##apop":13535,"##ali":13536,"lactate":13537,"##rocyte":13538,"0.08":13539,"##olec":13540,"⎤":13541,"[10,":13542,"purchase":13543,"doctors":13544,"##fed":13545,"##issible":13546,"recons":13547,"ove":13548,"calibrated":13549,"220":13550,"##ressively":13551,"relief":13552,"##.26":13553,"##limited":13554,"apr":13555,"##–13":13556,"programmes":13557,"##yd":13558,"portfolio":13559,"##umn":13560,"resultant":13561,"mesench":13562,"rising":13563,"anomaly":13564,"rectangular":13565,"4.1.":13566,"silencing":13567,"kor":13568,"switched":13569,"arranged":13570,"constitution":13571,"videos":13572,"##stry":13573,"bsa":13574,"##opausal":13575,"billion":13576,"catalog":13577,"platelets":13578,"##midt":13579,"##ket":13580,"biopsies":13581,"##natal":13582,"smoothing":13583,"##unit":13584,"convenience":13585,"biases":13586,"##ativec":13587,"tetra":13588,"dock":13589,"##nature":13590,"sustainability":13591,"neglected":13592,"fibrill":13593,"5(":13594,"remission":13595,"terminals":13596,"legi":13597,"##onald":13598,"niger":13599,"varieties":13600,"solubility":13601,"##.30":13602,"##obacteria":13603,"gard":13604,"ét":13605,"immunoblot":13606,"replicates":13607,"##terms":13608,"manifestations":13609,"##plying":13610,"##–14":13611,"contracts":13612,"##sel":13613,"##item":13614,"elicited":13615,"bioinform":13616,"galaxy":13617,"irre":13618,"andre":13619,"##glob":13620,"pointing":13621,"notable":13622,"inqu":13623,"##heme":13624,"##track":13625,"grows":13626,"initiate":13627,"thing":13628,"kam":13629,"precondition":13630,"cellulose":13631,"10.11":13632,"duty":13633,"##1.5":13634,"bras":13635,"plac":13636,"##bir":13637,"##child":13638,"##aturated":13639,"beams":13640,"simplest":13641,"xxx":13642,"##holder":13643,"draft":13644,"neurology":13645,"christi":13646,"shoulder":13647,"swelling":13648,"##inear":13649,"(0.5":13650,"implied":13651,"bib":13652,"massachusetts":13653,"2017,":13654,"assim":13655,"uthor":13656,"ross":13657,"blank":13658,"##vp":13659,"spectrophot":13660,"inject":13661,"hj":13662,"##vii":13663,"##)‖":13664,"##affin":13665,"##appropriate":13666,"sein":13667,"confer":13668,"##strained":13669,"dots":13670,"jk":13671,"##1,2,":13672,"##ofl":13673,"modality":13674,"buildings":13675,"(3),":13676,"##nea":13677,"necessity":13678,"##:12":13679,"##assisted":13680,"metabolite":13681,"emphasized":13682,"nick":13683,"lign":13684,"boxes":13685,"moderately":13686,"naive":13687,"remarkably":13688,"yt":13689,"gynec":13690,"##][":13691,"[27]":13692,"profound":13693,"1990).":13694,"staphyl":13695,"##anghai":13696,"rosen":13697,"clustered":13698,"##seg":13699,"##amoto":13700,"virulence":13701,"carbohydrate":13702,"marks":13703,"gev":13704,"shield":13705,"##oelectric":13706,"pelvic":13707,"##ectic":13708,"##uniform":13709,"rationale":13710,"wors":13711,"oxidase":13712,"sab":13713,"corneal":13714,"##airs":13715,"##@@@@@@@@":13716,"##izers":13717,"splicing":13718,"′(":13719,"##infection":13720,"abol":13721,"empirically":13722,"sho":13723,"2007)":13724,"##apsed":13725,"##rectomy":13726,"unfold":13727,"hif":13728,"##rection":13729,"settle":13730,"##ées":13731,"evap":13732,"respiration":13733,"indoor":13734,"triglycer":13735,"fgf":13736,"mcf":13737,"##itives":13738,"centres":13739,"ammonium":13740,"##content":13741,"bart":13742,"parity":13743,"##iler":13744,"unified":13745,"prone":13746,"pestic":13747,"##,3":13748,"supervised":13749,"universe":13750,"anonymous":13751,"##ierung":13752,"(2.2":13753,"yn":13754,"cylinder":13755,"##expressing":13756,"##assen":13757,"backbone":13758,"##bond":13759,"intuition":13760,"zusamm":13761,"ultimate":13762,"##kit":13763,"##fat":13764,"behaviours":13765,"##bra":13766,"clause":13767,"squared":13768,"##xin":13769,"[11],":13770,"broadly":13771,"frameworks":13772,"costly":13773,"##ulary":13774,"wait":13775,"semiconductor":13776,"##blind":13777,"spind":13778,"hung":13779,"interfere":13780,"##icz":13781,"transfers":13782,"annotated":13783,"(26)":13784,"subm":13785,"anemia":13786,"40,":13787,"##proble":13788,"uniquely":13789,"ê":13790,"hes":13791,"absorbed":13792,"cosm":13793,"nearby":13794,"##environment":13795,"fused":13796,"aperture":13797,"wash":13798,"prescription":13799,"confirming":13800,"dod":13801,"##tf":13802,"##8+":13803,"philosophy":13804,"repository":13805,"belg":13806,"raises":13807,"commut":13808,"overweight":13809,"##sor":13810,"##imetric":13811,"templates":13812,"elongation":13813,"##hydrox":13814,"vortex":13815,"resident":13816,"##icine":13817,"/2":13818,"upregulation":13819,"intermitt":13820,"arsen":13821,"declined":13822,"tcr":13823,"melting":13824,"incision":13825,"conjecture":13826,"lewis":13827,"135":13828,"##growth":13829,"trypsin":13830,"gill":13831,"bifur":13832,"##ivalent":13833,"captures":13834,"horn":13835,"pollut":13836,"##)[":13837,"##division":13838,"##450":13839,"quantization":13840,"depolar":13841,"token":13842,"hemisphere":13843,"outpatient":13844,"knowing":13845,"anticipated":13846,"##otically":13847,"##oct":13848,"(2011).":13849,"inverter":13850,"biofilm":13851,"ascertain":13852,"37.":13853,"##rium":13854,"450":13855,"cameras":13856,"fulfill":13857,"aggregated":13858,"##oform":13859,"publishers":13860,"##alc":13861,"##01)":13862,"##är":13863,"habitats":13864,"antiv":13865,"editors":13866,"metallic":13867,"concludes":13868,"deficient":13869,"[27].":13870,"##atg":13871,"damping":13872,"saving":13873,"##eda":13874,"transm":13875,"##igkeit":13876,"cement":13877,"##uma":13878,"cubic":13879,"aller":13880,"starch":13881,"slo":13882,"(5.":13883,"ari":13884,"propri":13885,"mimic":13886,"##national":13887,"sacrific":13888,"##ðtÞ":13889,"(1994)":13890,"4.6":13891,"oocytes":13892,"diego":13893,"angiography":13894,"scalability":13895,"stone":13896,"##rod":13897,"wenn":13898,"##atom":13899,"##aids":13900,"compressed":13901,"enjoy":13902,"nar":13903,"emerge":13904,"latest":13905,"transmembrane":13906,"replicate":13907,"cdcl":13908,"(2002).":13909,"240":13910,"cardinal":13911,"seedlings":13912,"##ocortic":13913,"spanning":13914,"bim":13915,"foster":13916,"##4.7":13917,"denmark":13918,"(40":13919,
[...]
